/**
  ******************************************************************************
  * @file    har_data.c
  * @author  AST Embedded Analytics Research Platform
  * @date    Fri Nov 19 11:55:03 2021
  * @brief   AI Tool Automatic Code Generator for Embedded NN computing
  ******************************************************************************
  * @attention
  *
  * Copyright (c) 2021 STMicroelectronics.
  * All rights reserved.
  *
  * This software component is licensed by ST under Ultimate Liberty license
  * SLA0044, the "License"; You may not use this file except in compliance with
  * the License. You may obtain a copy of the License at:
  *                             www.st.com/SLA0044
  *
  ******************************************************************************
  */
#include "har_data.h"
#include "ai_platform_interface.h"


AI_ALIGNED(32)
const ai_u64 s_har_weights_array_u64[ 5138 ] = {
  0x3ead5481be28ede7U, 0xbdfb263f3daf4ffdU, 0xbd3781d63f4b9418U, 0xbf0ce509bd4a0b70U,
  0x3d132768be6a7c41U, 0x3bdb7751bf19f106U, 0xbeb8cbfbbf13c902U, 0x3c4f643e3e936b80U,
  0xbe9aae23bc457c51U, 0x3f31c0d4be647a34U, 0x3e92ef27bf1fec35U, 0x3e06705c3f1e3d3eU,
  0x3ebfef29bd3079adU, 0x3eaaad6f3ecef295U, 0xbd87f666bc04a6c3U, 0xbc32f9c0be28cfabU,
  0xbdf3f6e1bc7db753U, 0xbe0f14be3d33d83aU, 0xbded3cc63cb1625bU, 0xbf1f96ff3c6d4831U,
  0x3d45fcba3e0960baU, 0xbf188ef73d4a48c3U, 0x3e4da0813e2c493eU, 0xbe4f4943bd0f72f0U,
  0xbe998ba8be123901U, 0x3d47d6c1bed196beU, 0xbdd43fde3e2b5623U, 0xbed3cf4bbe3e6b9dU,
  0x3f0e64be3dd32e22U, 0xbe7a90203c23169cU, 0x3f20a4c33ea0d210U, 0x3df05a6dbe60aeaaU,
  0x3ee689b63ea9c808U, 0xbebece13bef91ba0U, 0xbf076b343f137959U, 0x3f08b5acbe5e1fbbU,
  0xbdeb6362bdc16d9dU, 0x3f0787b33e79a0e8U, 0x3df88ac13e0343caU, 0xbedfdb503d1a4fe1U,
  0xbdb3a74dbf3d8867U, 0x3dd3f54cbe240bf4U, 0x3e199185be00170eU, 0xbf0eaae0bee6b610U,
  0xbea579fabf117f0bU, 0xbe6a37973d88c8dfU, 0xbf0c439bbec06ef1U, 0xbe04ebca3eabdb1dU,
  0xbddc56e83ce161a1U, 0xbe3568f63f517f0cU, 0x3e5598ca3ed733dcU, 0x3f6750a9bf0f6b24U,
  0xbe51af8dbd0c6e9fU, 0xbf03621e3e3a4ed4U, 0x3c7feb9cbe231135U, 0xbe8b96f3bce93925U,
  0xbec5634cbea6ec03U, 0x3ee7eb46be03ae4aU, 0xbe470e2f3e964d5fU, 0x3ebdea2b3e24c912U,
  0x3e6966f7be9616c6U, 0x3c9a57a8bc851a85U, 0x3f82ae973e6600a2U, 0x3dfd9d263e6e0df3U,
  0xbe3396c63e81f95cU, 0x3e4c94bf3eb5ea87U, 0x3da2b5753e19100bU, 0x3e11fcd63f2ccd58U,
  0xbd5055113e0856b9U, 0x3ed541113f03cf53U, 0xbf3c2b6cbe99fe0dU, 0xbf1a85babf00ae76U,
  0x3dcfc9db3cf69bddU, 0xbe6138c1be0093ddU, 0x3e52fb933e484a05U, 0x3eaaa26f3eaebee7U,
  0x3ea19121be760fe3U, 0xbd80f86abe0b7db1U, 0x3e8e098fbe551278U, 0x3e34c575bdafeeb6U,
  0xbe19410b3e830e7bU, 0x3d3371fbbe02df12U, 0x3f4d97e13e8ab9ffU, 0xbe963c8bbe5ee05fU,
  0x3ed006a1be382074U, 0x3ccde85abf34ed9eU, 0x3e872608bdb1fcd9U, 0x3e81190dbf71e72dU,
  0xbe1fb1673e454f40U, 0x3d5ccefcbe7406ccU, 0x3e334b1e3de955e1U, 0xbf25561b3c96d900U,
  0x3f3186013e3b38ddU, 0xbdcdaee13ea5c4aeU, 0xbd97d05dbe4699a0U, 0x3dbab1b8bdef715eU,
  0x3f2c4a34bf19e924U, 0x3e46d2bb3e4d248aU, 0x3ee52279bf0ced89U, 0x3d9ed6803e7a77bfU,
  0x3d466a1abe41f73bU, 0x3e92cad2bd3edcc8U, 0x3d5474b13e0f116dU, 0xbddc5808bea3af7fU,
  0xbd550ed6beadb624U, 0xbf0fdc3e3f11ff07U, 0xbec86228be894c37U, 0xbe9c7cd9be92f735U,
  0x3de419753de193cfU, 0xbbaf8c32bdafdb2bU, 0xbe69034abcb4d9c2U, 0xbe5315783cc2e439U,
  0xbe81cbe33f0a1fb5U, 0xbe9272663e50a6b4U, 0x3f502be33e364907U, 0xbe45cf6dbeb2a4edU,
  0xbf3fdbd23e34ed47U, 0xbe119acabe06cf20U, 0xbee012e43e5bb727U, 0xbdd88bf4be8616cbU,
  0xbd501d6bbdd81f0cU, 0xbdf95e55bf0d994fU, 0xbee7b90b3f1c4d73U, 0x3f4c7c79be097455U,
  0xbe0c13713e4b4c13U, 0xbdc2c6163f00d402U, 0x3dff7a54bd651225U, 0xbe9621babdd1a30dU,
  0xbe19c6243ea29304U, 0x3dbe633b3e3d6b25U, 0xbd2b0875bd5207fdU, 0xbd1331993e002af0U,
  0xbe17b0a7bec00df0U, 0x3efe6a67bf1cf296U, 0x3e06fb453e322315U, 0x3e2751cabd46483cU,
  0xbe295ce03e476b94U, 0xbdfa4c713c07ba35U, 0x3e3c2058bdc2fcdaU, 0xbe30db4dbee0b64fU,
  0x3eb36fdebeb97ed5U, 0x3eafd0b63ebdbc1cU, 0xbe7cb608be8e6710U, 0xbef8b708bd94a5cfU,
  0x3ed783b13debde73U, 0xbe98ee6d3e9bafe3U, 0x3ecc4be8bee8cba6U, 0xbe44b050bf051723U,
  0x3e30128ebcb2ab81U, 0x3f05f8c1be847d2bU, 0x3f4725393f2ccd3dU, 0xbde3a1a53f346127U,
  0xbe3aba97be930bbfU, 0xbd849c153e4da6edU, 0xbeac54abbde886ddU, 0xbf5145c1be936295U,
  0x3e8ea1383db2471eU, 0x3e5e4e8ebf596a1bU, 0xbefafbc7bd0b1ff2U, 0x3eeecd15bd4e5e68U,
  0xbcc20cc6bf317896U, 0x3e81c1bd3f6c9821U, 0x3e5eafacbe1f0628U, 0xbf2b2bee3e29fb1eU,
  0xbd4ac32b3e86d3dcU, 0xbba0a03ebeae7e7cU, 0xbe43e506bf27d6dcU, 0xbe9ad8023de8d43dU,
  0x3ee278b1bc392949U, 0xbe88c9c0be51471cU, 0xbd8e9bf73e65efebU, 0xbcdcf2cb3dbbe639U,
  0xbee40929bd29d700U, 0xbebe427cbef0d5beU, 0x3ec04c8e3d3b95f3U, 0x3e47117f3ecf6023U,
  0xbca91e303e8023c0U, 0x3f22b3b8be86558fU, 0x3e8fedbabd4d3616U, 0x3e5b87223a33a54aU,
  0xbc87837a3e81577cU, 0x3f4087533d722c61U, 0xbe8a0a43beba85abU, 0x3e257c543ec8aec4U,
  0x3e4d1fa9be79d8faU, 0xbe0aaf6cbddd2694U, 0xbe9955aa3d8b1c99U, 0xbe917a003f12b7ecU,
  0x3e0fa09cbdaa1042U, 0xbe535eaf3e492b3dU, 0xbca1d74bb83f91c2U, 0xbf14fa7fbe95a2b2U,
  0xbdb71db9bdbac403U, 0xbdb1ed6ebe814084U, 0xbc045c613c0cd018U, 0xbe9ab7773f68ad11U,
  0x3e9cb1003eaa1ef2U, 0xbf1e85873e2466deU, 0xbd3afea7bd57b1cfU, 0xbf8794933ec145e9U,
  0x3e09c6e63db7ac7dU, 0x3e9a39563e6f6aadU, 0x3dd7241bbe1e77b5U, 0xbe5879483ec663c2U,
  0x3ce570cebed44e85U, 0x3eb77c813e27d027U, 0xbf01f2fbbf0267c0U, 0xbe0b776c3dbf9cddU,
  0xbe0d80c2bec27d83U, 0xbebfe6a93f3659fdU, 0x3e7a1a463e8eaf7bU, 0x3de826343daada6dU,
  0x3e0eb0e73e4b6ec1U, 0x3d636e0cbe2f3950U, 0x3ea3cc983e8e33c5U, 0xbdd343e13ecc2596U,
  0xbd79db403e2e65b9U, 0x3ea017023e6b12f3U, 0xbe5def43bec677d6U, 0xbf9e51b2be892c34U,
  0x3ecddf34beee8371U, 0x3e53316ebc9ba480U, 0x3e59475abded4b8bU, 0xbdf7f39e3ccb2752U,
  0x3eb13259bf08473cU, 0xbe62ff41bd9a1030U, 0x3f0da28abe2f4929U, 0x3f00213e3ea28c32U,
  0xbe8d15053e574ff4U, 0xbd4fe59a3c87d322U, 0xbdf7b008be9a8913U, 0x3f33dfd03f8c0c84U,
  0x3e878c263e8df20bU, 0x3eaa5305be807e9aU, 0xbe64d769bccfccf6U, 0xbc85b7663e015602U,
  0x3e14939f3ecd2409U, 0x3ec5baeb3e60b1e7U, 0x3ea2acf43ee1f4d3U, 0x3e1c169bbe0abf13U,
  0x3efa3d2cbf2702ccU, 0xbcf50bb1be3f1549U, 0x3e345b3cbefe0fe0U, 0xbf0cd92fbd38b419U,
  0x3eca473fbd575252U, 0xbe5bbf873e10ad9fU, 0x3f3fcfc43e639dc6U, 0xbd4aee383cfe1ea9U,
  0xbd0bdb4b3eb518b6U, 0x3ae4ee15bf02a662U, 0x3d2207f33e1ad004U, 0x3f026fba3e996b6eU,
  0x3d81c7e1bd123817U, 0xbe2c6062bc516999U, 0xbde6d336beb323fbU, 0xbf26c05fbe9770d1U,
  0x3c1d31563dde37e7U, 0xbeb2e8c5bee38fb4U, 0xbc4d6870bf2fc13eU, 0xbea22b0f3eef0e5fU,
  0x3edb3675be29e84bU, 0xbd0c429bbe165f08U, 0x3f513b823e69054aU, 0xbcb9f43dbf31dddaU,
  0x3ea6192d3b311e37U, 0xbde005ee3e0c0c33U, 0x3e0ce7e03eb275dcU, 0x3ed3a1c1bf07148cU,
  0xbe5b0ab13f1e86aeU, 0xbc99bff0bc1499b7U, 0x3d9700afbe72ce73U, 0xbf2f44c1be50fa35U,
  0xbe16823a3ea4ee94U, 0xbe9f4c413ec18d60U, 0x3dd91c213ecc0a15U, 0x3e71c9513e7f30fdU,
  0xbe26fc833f6dd657U, 0x3e7d25e8bd45b358U, 0x3dea89f1be95d202U, 0xbd1f16c1be683113U,
  0xbf096a0ebcd6848aU, 0x3e1a7085bef02ab9U, 0x3eb4b0e83ec301d6U, 0xbe9334023e9220a1U,
  0x3e37ea2d3e656027U, 0x3e90621cbed6bc8fU, 0x3d725d553eca5156U, 0x3daf43abbe72a727U,
  0x3e25320bbe9e21ecU, 0x3d6828c4bd864650U, 0xbe283351bf013a6cU, 0xbdc51da1bd4f8691U,
  0xbdd0c4a8bef1007dU, 0x3c87e95abe371ce3U, 0xbd9920443f2f9a15U, 0x3e98cb2dbed27451U,
  0x3ef453903c96027aU, 0x3ef16b503deab10eU, 0x3f2b14bcbe8f55c8U, 0xbe89d13cbe4e838eU,
  0x3e220484bd816779U, 0xbe655a70bda2b9a8U, 0xbe0607993e425137U, 0x3da7f7ecbf7103fbU,
  0xbe3641323ee9736aU, 0xbe546fd0be3afe7dU, 0x3d5ff1083e36a80eU, 0x3e22d01fbe81a053U,
  0xbdd92306be74940bU, 0x3eb3b01ebe2704f6U, 0x3d949960be9ff3c2U, 0xbe378b9bbf342b03U,
  0xbf0b76923eb81672U, 0x3e9c9ea7bee32732U, 0xbeaba0b63ee0ce03U, 0xbe425174be3ae22fU,
  0xbf1ef85d3e833cc3U, 0x3e9fb2723df89146U, 0xbea810813e7aa65fU, 0xbd458fd3bf046b78U,
  0xbde8d0b13e1f89a1U, 0x3eb2bbff3d6cf4f9U, 0x3ea28b9e3dcdf15fU, 0x3e9c893fbf0e3389U,
  0xbeb78e4b3d28d7b7U, 0x3f68c7853e610b00U, 0xbdbe5159bf0e22d8U, 0x3da35426bea93bb3U,
  0xbd661d2bbdb47fa8U, 0x3e88f99abd8b5333U, 0xbe50a11f3f5094d9U, 0xbd84ac0b3e8733a2U,
  0x3e9e749abe011f71U, 0x3ea60e7f3d6749ceU, 0xbd5ac245bd644ebaU, 0x3ec44ba43d83d6a5U,
  0x3dc8d93b3d701565U, 0xbe0e26d63d4578a5U, 0xbe4173983e22810bU, 0x3f85c21bbc1f4618U,
  0xbd91c833be97e8a4U, 0xbed9d17dbd022ac6U, 0xbefa4e9bbdb979dfU, 0x3d08df223d8aebcbU,
  0xbe40236bbf3f4151U, 0x3e22c3a2be50afceU, 0xbe490ed1bf090295U, 0xbe90bbe63eb88728U,
  0x3ef88fc83e499ce5U, 0x3de2c71f3e65f8c7U, 0x3d2781fc3e6c59ecU, 0xbe1d65e93e79b331U,
  0xbf0d65053da93014U, 0x3e7ab6473e1f44c5U, 0xbdb54991bba59d4eU, 0xbd7c8adfbda97ba9U,
  0x3c6d3f2ebe73f84bU, 0xbec1cee3bf29b82aU, 0x3eecdb0fbe89f374U, 0x3e0e1a23be9e490fU,
  0xbe12019e3e9f82dfU, 0xbe56be91be346193U, 0x3bba5632bead9b0dU, 0x3e934a673e8b5af1U,
  0xbe24f64c3e83287cU, 0x3e389803bef827c9U, 0x3e6875863e7e5322U, 0xbc7c8756be3eb7f1U,
  0xbf1b0cad3e8a5340U, 0xbd82bf4ebdc55a29U, 0xbe3bca863e9d8621U, 0x3e74c656bea0bc11U,
  0xbe99dc16bf0462f3U, 0xbe2d43133d5be51aU, 0x3f1377ffbeae59c7U, 0x3e4adcdf3f6d02acU,
  0xbd9160123f445837U, 0xbf117252bed77beaU, 0xbda0acde3e5a29b5U, 0x3d3199073cedc228U,
  0xbef3a89bbeb9f1a0U, 0xbe7c273e3e300fceU, 0x3d4c43a4bf06866cU, 0xbe8f9ef5be81460bU,
  0x3e780ae6be822147U, 0x3daa6783bec3060cU, 0x3f36327d3f07bf2bU, 0x3ee36b033d97cb17U,
  0xbe3b7fd43e53f893U, 0xbe83dc383f51c93aU, 0x3db1ccccbeb2a8e2U, 0xbe056b19bf20c313U,
  0xbe635cfdbde85d9dU, 0xbd4d9432beb9859eU, 0xbebd5e16bd88f275U, 0x3dec8eca3f22e512U,
  0x3de580603b132213U, 0xbf8c064a3e72fc3bU, 0xbde06ddcbef58854U, 0xbe2e4a263d8bf921U,
  0x3df093f43f287aadU, 0x3eaabf233e4f49efU, 0x3eaf8cadbf5fa712U, 0x3e8d61f7bd8712c0U,
  0x3eb8644cbcd088bbU, 0xbe3630a63f1ec463U, 0x3ec5f452bd234d68U, 0xbea39458bec5e095U,
  0xbd3041073cdf2a6cU, 0x3d3a6e1b3de9ff5bU, 0xbd87aee03e298c7cU, 0x3e3ee3253e56cc7eU,
  0xbdca35053e9ad051U, 0xbbc8a0cc3df92fb5U, 0xbe237461bc3faa7bU, 0xbf89547abd9890a5U,
  0xbf15fe9fbdd9bd5eU, 0xbed1c4c2be4d5928U, 0x3e5302b33c46eb10U, 0x3ed1999fbe053efcU,
  0x3e1543bf3f643c4fU, 0x3ea2caeb3ef2d8b2U, 0xbea305103ebcbd09U, 0x3d5ff6143e0f11deU,
  0xbf80e5ea3e96f369U, 0x3dd592d53eab135eU, 0x3e674bd43dd8ba82U, 0x3e92c0cbbe72bf4aU,
  0x3d1bbe16bd5b0a29U, 0x3e6dcf01bf4c0fc0U, 0x3f01f4763eff80aaU, 0xbef12b54bea62f63U,
  0x3e61d766be4cfc45U, 0xbeb25f68bf0403b6U, 0xbdbc219f3f40ff3eU, 0xbdb3f1ee3e9b8569U,
  0x3ea751f33e94f9a0U, 0xbda17071be5bcf95U, 0x3e880be03db1e31dU, 0x3ec8b9e93f05fc9fU,
  0xbd84a6023ea6915bU, 0xbe41cefcbdcd2d48U, 0x3ec89f5fbd8b7eeeU, 0xbe0134c6be050e2bU,
  0xbf76ca6bbf30b4c2U, 0x3e3bedb6bea1f1b9U, 0xbd037da1be9b0063U, 0x3eb00c2bbef03f34U,
  0xbdd4a0633e95f413U, 0x3e97b33abf0b78d7U, 0xbe516296bdbb7395U, 0xbe0d25833db023a5U,
  0x3e1b8f0b3c9361f6U, 0xbdca197d3e280bebU, 0xbe515b043d94d1b2U, 0x3cbe177bbe9c603eU,
  0xbc03f01bbe05dd14U, 0x3da5a79d3d39028cU, 0xbc3853ae3e873b61U, 0x3e8a9bb0bca39021U,
  0xbe2758523e076b53U, 0x3e5887d3bca0e60dU, 0xbe9bc009bd6a8326U, 0xbcd4f4e5be4de72fU,
  0x3ed31e8f3d19a9fdU, 0x3e7bc2383e379839U, 0xbe2d75183ddc7e3fU, 0xbeaadd37bd47df12U,
  0xbd294d57be882654U, 0x3cdc072bbd991cd1U, 0xbdcbd5e23c9858c0U, 0xbea8dedfbe3a698eU,
  0xbe65bedf3ed3dc36U, 0xbce0642dbe302282U, 0xbd41ec9fbe033132U, 0x3d5eede33d84decfU,
  0xbcf97dc7be883449U, 0x3e31dfac3e40f7a2U, 0xbd4f90d33e571665U, 0xbe0cc3c8bd43df45U,
  0xbc8546d03dc7524cU, 0x3daebf05be576e0fU, 0x3e16117e3e4d1452U, 0xbe0cca0e3e91362aU,
  0x3e2b619a3ded0419U, 0x3e90aeb43daf99d1U, 0xbe2b06a0be5b352aU, 0xbe9f5b863dc28125U,
  0xbe568848be61a4afU, 0xbe4b2ab4be25dc57U, 0x3d9abfef3e3ecb9fU, 0xbd9d0ce4bd97cb58U,
  0xbc81eea5bd734a46U, 0x3d5f6c28bd2412feU, 0x3d80a1423e6fe0ceU, 0x3eaebdedbe856327U,
  0xbce8b627be3c12b8U, 0xbb84797b3d6b0415U, 0x3d4a448a3cdb03c4U, 0x3cdeb322be8f3705U,
  0x3ceb8ecb3e17bd5bU, 0x3ebc56aebd4b4ee0U, 0x3eacb4d03d8d4782U, 0x3d7081313d6100d7U,
  0x3daaa515bdf3763bU, 0x3e4f16cebe985c54U, 0xbc848287bc005db8U, 0x3d1bd3fbbe9d70f1U,
  0xbe4945f5bcc553f1U, 0x3e0e2ab4be4f3b75U, 0xbdcab0263e57ca80U, 0xbeb18ae1be935339U,
  0xbdc966febe78a5d9U, 0x3d7b6cac3df26d36U, 0x3d99f3993dbf3b19U, 0x3e1278583d9576efU,
  0xbe37369b3e2cebfbU, 0xbce24e82bda46287U, 0x3d8fe8123c72f5f6U, 0xbd823ac3be26e8f5U,
  0x3d394874bbfbb45bU, 0x3d2c2cedbc4552e1U, 0x3e0cfe373ddd41e7U, 0xbd55056cbb10ca86U,
  0x3e19ac0cbe4923b3U, 0x3e58f9a5bd7ac88fU, 0x3d85b82f3d527021U, 0xbdc2d79e3df8df41U,
  0xbcc4f98b3d29e29aU, 0xbed6d55ebd0153e2U, 0x3e1ef6253d4a9cebU, 0xbd9895903d0b4582U,
  0x3e1e5a963cb1df7bU, 0x3d7d6a4dbe879094U, 0x3e224e833da71821U, 0xbe022caabdf6a09bU,
  0x3bdea80e3eec7317U, 0xbdf72c96be0267d1U, 0xbc6d0c0abe75a658U, 0xbeab13d9be3c3101U,
  0x3d2d44073dfa2241U, 0x3eadb741be2708ceU, 0xbc9787a93e5266d6U, 0x3cf777ac3e2e23e4U,
  0x3d34046c3e28aa04U, 0xbe6fcc23be76f7b4U, 0xbe62bbb73df49d31U, 0xbe87e084bedc7d21U,
  0x3e8de4abbe98e02fU, 0x3dbd5b063e4b82bcU, 0x3e2540163db64418U, 0x3d27136c3e363736U,
  0xbed4db403e03bd85U, 0x3e2f1e60be84d91cU, 0xbe2c7c323e4b1ba3U, 0xbcb71e2c3da144f8U,
  0xbdc650833db2ff2dU, 0x3d9222ae3e10acd8U, 0xbe47a162bdbf227fU, 0x3e419b413d26e638U,
  0xb8d2cd703e966f7eU, 0x3c02ee953dba7550U, 0x3e531b88bd9fcc27U, 0x3dc2d3333ec1970dU,
  0xbd3474bf3e712d50U, 0x3e30bc043d8476d9U, 0xbe42ec5a3e326e36U, 0xbe691773be13ce91U,
  0xbe7e9e783e579a9dU, 0xbe6761a3be1967c0U, 0x3b979710bdebdd50U, 0xbdc0bf50bf0370dfU,
  0xbc97cab8be47f801U, 0x3de099debe799c6dU, 0x3e0854723e823e87U, 0x3d30e57bbd10c675U,
  0x3e0202f43ca9b43eU, 0x3ea9fb0bbda06635U, 0x3e844a713e15017dU, 0x3b949f2dbe9a63baU,
  0xbdadf3febdc91280U, 0xbe064d943cc83946U, 0xbdc24b89be474529U, 0xbdacbef23e464a7cU,
  0xbb2ab314beb7e8b8U, 0x3e0469f8bb07994dU, 0xbed971e8bc649828U, 0xbdd0be02bd8df815U,
  0xbe77b17dbe99ea88U, 0xbf107999bdb1a6a9U, 0xbc7505373d5c42b8U, 0xbe1d61cdbe0785a1U,
  0x3e02be693e003882U, 0xbe42e3133e490106U, 0x3d8e84ed3e5e25c2U, 0xbccba3ee3ddd9b0aU,
  0xbd3c65723e388b8cU, 0x3d57e5efbe48dbc1U, 0x3df0a4cfbe6527ecU, 0xbde70d103dcb92e2U,
  0x3c95775a3e67014bU, 0xbca884073e897acbU, 0x3e26df6bbdb85942U, 0xbc046421bc95b204U,
  0xbecce7343e8cab40U, 0xbc295d8d3d0e63c5U, 0x3c91e6473d73aae5U, 0x3def8fe53df29a34U,
  0x3be569373d6174a6U, 0x3c04ba6cbe036c7cU, 0xbd1cd680be664ebbU, 0x3d542a053dd4626fU,
  0xbdfa4f023d35fe49U, 0x3ea148413da7bb9eU, 0xbe3b061fbd80b346U, 0xbe878e743e49d80dU,
  0x3d6b512cbe2a6dcfU, 0xbd1c9b513d3a7e30U, 0x3deda74a3e0c039bU, 0x3cb7601e3e9eeb7aU,
  0xbd8804703e604831U, 0xbe7e8d603d568ff7U, 0xbdfd5ff4bda97e63U, 0x3d156a593e341087U,
  0x3de230ff3e01edc9U, 0xbdea0e1cbe52cce9U, 0xbd44a11d3c71e3a2U, 0x3dd40b24bead1cffU,
  0xbe6dc227be88d33fU, 0x3e424bf73e12e30bU, 0x3d3278c0bd4ba122U, 0x3daaa303be09ca6fU,
  0x3da95f21bcbd1714U, 0xbe08d3d03e89e604U, 0x3e087229bd549afaU, 0xbd25bc40be260c8dU,
  0x3e7462c03e13f002U, 0xbd51339dbd17cb29U, 0xbe303fa93ed33940U, 0x3daf23a13e830222U,
  0x3e6a54d5bca1e1d7U, 0x3c5a044dbe8e6ea4U, 0xbd964b583a610216U, 0xbea8bf593e1e983bU,
  0xbe8dc1b3be238d8fU, 0x3ec6b7c93e43ee39U, 0xbe1a27c7bdf517f5U, 0xbe6d9cd9be6dec98U,
  0xbd94b2f0be76c308U, 0x3dfb3ebfbeb0e11fU, 0xbe821fd43d8ee878U, 0x3da625bb3dab0ed3U,
  0x3e57c8bc3e094f9aU, 0xbd98fec23e2fdf97U, 0x3e24874cbe91a48aU, 0xbe6d47c23e9097c9U,
  0x3da609353e7437e1U, 0xbe89deb53d513857U, 0x3cd2d0df3e0a6ffeU, 0x3d9f008b3dc49ea6U,
  0xbe1b2b6cbe16152dU, 0xbea9d0ebbe113fc6U, 0xbe35c95cbe52f93dU, 0xbe41e0bd3e1c483bU,
  0x3e72b02a3d9e2139U, 0xbdfc6227bd4571b1U, 0xbe3e92ed3e698f38U, 0xbda5d688bdc38359U,
  0x3cefc3c33aae612fU, 0xbdf70418bd28f85fU, 0x3d28ed7b3d9d532eU, 0x3e6863f3bcfcb9caU,
  0x3d98c6843f1364b7U, 0x3d5fca033d7757dcU, 0xbdc17cf83d742b56U, 0xbe01e583bcffe673U,
  0xbe1e188c3e583086U, 0xbecfe089be2fe53dU, 0x3ccf8c553d318a40U, 0x3ecdbbbbbc8f2674U,
  0x3e5de9ab3e1273c8U, 0x3e68b4493c9675b0U, 0xbda98f473d627404U, 0x3dbb8204be356770U,
  0xbda708ce3bd1baa8U, 0x3e274df63cf3c9b5U, 0xbceed4513e6b1e03U, 0x3e2b8241be54d36dU,
  0x3cb65eb43d4c1704U, 0x3e38a1293eb05c9dU, 0x3d11b6b03e856aa9U, 0x3e4674993dd84590U,
  0xbea13083be147a32U, 0xbda213e73e6f9709U, 0xbe549c20bdd71cf2U, 0xbe30d5063e6a1454U,
  0xbe305f29bf0ec9d8U, 0xbe537017bd08f080U, 0xbdf3f5fabd7fe6cbU, 0xbc8397f93e9c56e6U,
  0xbe9df146bd954177U, 0x3e4b7a3f3c384651U, 0x3e613404bdcfa09cU, 0x3d8ed74c3e006033U,
  0x3c2dd612be2164b8U, 0xbd9e75633d2d9ce7U, 0xbd3ee8a53db0608fU, 0xbe92ef00bd80f916U,
  0x3e0c4921be0306b2U, 0x3e41dee8be2d432bU, 0xbe16b1cabd176056U, 0xbe182eb2bc9b0bd4U,
  0x3e84ac413d3d55e4U, 0xbd6eea9e3d96918eU, 0xbd49d3d7be3afa4fU, 0x3e8f3efebe161906U,
  0xbe4bc7e63dbf4f49U, 0x3d70dc68be8e6f13U, 0xbdaec04c3d00f22aU, 0x3c9a348dbd38397fU,
  0xbe18cb053d88e8ccU, 0xbda4e78e3e63d2e8U, 0x3eb362013d8bb6c8U, 0x3c887e573e68b1a1U,
  0xbf1840ac3c2cc568U, 0x3ea7614f3e179291U, 0x3e2a9d68bd6c405eU, 0x3d429b9e3ee9ee46U,
  0x3d79b062bc860743U, 0xbe2d47fabe83877aU, 0x3e005bdb3de8e225U, 0xbe6303b9be2f6ddcU,
  0xbe67ac0e3bba48baU, 0xbe3655b83df89ff5U, 0x3e079bb13e24dd13U, 0xbe8ebd93bda189bfU,
  0xbebf8fe33e4f6ed4U, 0x3d854b90be1771edU, 0x3e5300a43e0fa543U, 0x3a14419f3c2cf3cbU,
  0x3e02a375bcfec0cbU, 0x3e15c5f6be17cd2eU, 0xbe838c83bf1bd217U, 0x3ce39b1c3e6b36dcU,
  0x3dc91380be61da9aU, 0x3d83e7873ea6dd41U, 0xbe4e5762be95216cU, 0xbdc6f65a3e70aa0bU,
  0x3ebc82f9bd640922U, 0xbec678ec3cb7b151U, 0x3e96da6cbcf2ab98U, 0x3ee0e393bdcb1882U,
  0x3e7cbeda3e4bdb5fU, 0xbe8e7744be9a5f4dU, 0xbeb345313e93d829U, 0x3f0efc5fbeb667a3U,
  0xbf00c12dbe669776U, 0x3e105cf5be9b1697U, 0xbf1add963edbb11aU, 0xbe16f7b83d2a5263U,
  0x3e156341beabcec4U, 0xbdf4f2583dbdf905U, 0xbe05e3933e873396U, 0xbe646e15be6e8cb1U,
  0x3e00dca6bdc37a63U, 0xbd06cb4d3bddb35eU, 0xbe2604b8be8ed6d2U, 0xbd9a314abdf814aeU,
  0xbdf63c8bbe2a22b1U, 0xbd439dd03c87b416U, 0x3dc5844fbe4faf14U, 0xbe0bc7c93e2cc8d9U,
  0x3dc2ccc13db9a79dU, 0xbd8d0403bc3b3b9aU, 0xbc9ed6a5be892628U, 0xbe8c99d4be9cc0afU,
  0x3d3d0a45be47649bU, 0xbda917a53e16ba22U, 0x3da56e393ea09652U, 0xbde409483def9f82U,
  0xbd42bf36bcfa049fU, 0xbde4c7f93affbcb7U, 0x3d168795bdee2326U, 0xbe117797be20dfb4U,
  0x3f075a1fbeaa98adU, 0xbe408d113e00621dU, 0xbe6705bc3ca75e30U, 0xbdf24fc73c5a7aa7U,
  0xbe1720c1bdb785f8U, 0x3e2614bb3d67e4a4U, 0xbd816ddf3ec77fb6U, 0xbdb05c843de5dfcbU,
  0x3e024296bd67a056U, 0xbd6975e8bd7af9c1U, 0xbe0e487fbcfeb2ebU, 0x3ebebf6ebdd7b498U,
  0x3da424a53e4f6ec3U, 0xbe5b44043dd23520U, 0xbea67215bc6f4b6dU, 0x3d88378bbcc71726U,
  0xbe29bdadbecc5f48U, 0x3e21a805beee75dfU, 0x3e7a37febe21527cU, 0xbe3105033e8a321eU,
  0xbdc78f923e0ffb53U, 0x3e97366abe70bcc9U, 0x3e527043bc556aacU, 0x3c6a20263db117f6U,
  0xbdb7dd6a3ea285beU, 0x3d2f6f57bd4188c7U, 0x3dd7e03abe912158U, 0xbdf241d8be09978eU,
  0x3dff53273dd3cdf1U, 0x3e064b583e5efa6cU, 0xbe89d740bd23a4c0U, 0x3cb8cc0a3cfd0130U,
  0xbe1d248ebda3a180U, 0x3dd64fdd3dae09b8U, 0xbcb29af33e76abd7U, 0xbd80afaa3ba2e96aU,
  0xbe76b358bc845025U, 0xbeb4eb0a3d75b980U, 0x3e1bbacebe1c7692U, 0xbe80a80d3e2000c1U,
  0xbdc530cbbeb609d1U, 0xbd382f0b3e309359U, 0xbd49b908baaf564cU, 0xbdb6b316bdc29a8fU,
  0xbe9044cbbd768c64U, 0xbe8f0d6fbd3aad66U, 0x3e213464be0ab944U, 0xbe499f6ebdb02f56U,
  0xbda547193cb6a878U, 0xbe855c163e676331U, 0x3dbe390cbab1416eU, 0x3c8964c9bb564fdcU,
  0x3d9a37af3dbac2ffU, 0xbc56dec23c876462U, 0x3ed7660f3d4d1833U, 0x3e251ba33dd717a5U,
  0xbce46904bd2e6798U, 0x3e0b7dcebdb188c5U, 0xbe88a0a9bf0a54e0U, 0x3d7b811e3d4e21e0U,
  0x3d02df7ebece3c18U, 0x3e2453ec3e9c7eddU, 0xbd879df1be0215d8U, 0xbe6c778e3e5bd2d7U,
  0x3e47e24abe96b97eU, 0xbd94b7323dfeeba6U, 0xbec152c5be195744U, 0x3ce38742be1668faU,
  0x3e80e771bf20791bU, 0xbe3658133d88f768U, 0x3eb83d223ca14e09U, 0x3e3105ab3d8e4991U,
  0xbc52bde13e2e77d4U, 0xbe92b5ba3d9146adU, 0x3d18026fbe5c2495U, 0xbecba940bd8f23ecU,
  0xbe3a9af3bdee39f6U, 0x3e89bbf83d916af4U, 0xbe00fb67bd49556dU, 0x3e86ea37bc2ff554U,
  0x3e4c95b93c1b70dbU, 0xbdd6a4d3be2db254U, 0x3e893f1bbd24a36eU, 0xbdc5d5e0beb8ec3eU,
  0xbc776dba3e47bc01U, 0x3df26a70bd58b2fbU, 0xbd2693703e16f51eU, 0xbd61eb93be5c7837U,
  0x3dc81db23d5a93e8U, 0x3d9d4792bcec9929U, 0xbdd74b7a3eb2c60eU, 0xbdd1df293da46d4cU,
  0x3e81a9c8bdcbf687U, 0x3dd5367bbd3a1773U, 0x3e4bc1773e978602U, 0xbec35129be58c6d0U,
  0xbeab2d72be1fede2U, 0xbe056fb1befc8f62U, 0xbe6dbc1ebd1bb69eU, 0x3da515e63e228ed0U,
  0x3cf104e4bbcc095cU, 0x3e2261c03e996ad0U, 0x3e7272a63d24be62U, 0xbe9fd081be177cc9U,
  0x3e2797893d7b2249U, 0xbd963151be814719U, 0xbe5bb83c3d52f12aU, 0xbdac5626bac56b69U,
  0x3df68c7d3e373e81U, 0x3e6d9b9a3caa62f7U, 0x3d0ca6f6bd858202U, 0x3d001149bea267a8U,
  0x3e43fde4be101cf2U, 0xbc33999abd9e10edU, 0xbe2d19093c7c0710U, 0xbdc3387bbeca7383U,
  0xbe17f540be262714U, 0xbd69ebe9bdc4ce85U, 0xbd4f1f6dbf00242bU, 0xbe7a6c653de16ba1U,
  0x3e629d7bbdd36660U, 0xbe063a683e2ffeeaU, 0xbd82955ebe7eb3e3U, 0xbe27a89abd2a1164U,
  0x3e169079bdd5cc01U, 0xbd78464dbdf960cdU, 0xbe1faababdc3ab56U, 0x3df590c1bd144bdfU,
  0x3d0cc7f33cb9ea7fU, 0x3e831e2bbcbb0202U, 0x3e350a82be041e27U, 0xba7193d03e31760fU,
  0x3e8f3e0ebe196583U, 0xba5687613dc1f7d1U, 0x3e8bdc1c3cca0370U, 0xbd81fd63bcef5649U,
  0xbe2bff8c3d670202U, 0xbe2736aabd8d9b57U, 0xbd49e57d3e4b9a25U, 0xbdcafe10be289e6aU,
  0xbdd9f4cf3e0b4c9dU, 0x3c3c91533d69cd9dU, 0xbe75eb903d829d68U, 0xbd2af90ebe2770e1U,
  0xbdff321cbdb8e597U, 0x3d801b80bd3a8d42U, 0xbdb983c93d40515bU, 0x3e53c7843e9bff15U,
  0x3e4e02e23e27e285U, 0x3e85a9aebdc87154U, 0xbda50347be1b099dU, 0x3ec2261cbdd9b810U,
  0x3c9c6becbdf6e6b1U, 0xbe2dc02abd5585cbU, 0xbd8cbcaabe929482U, 0x3d9ed873bdbcf6baU,
  0xbe055f993d99ef95U, 0x3db9f552be767f75U, 0xbe830bf83e2e2725U, 0xbdecc2453e4c33d5U,
  0x3be75cddbe3ba51aU, 0x3e357c453ce463f9U, 0xbdfe5075be043b09U, 0xbe14b629bde01d84U,
  0x3d77d8533e13380cU, 0xbd0eecf4be237258U, 0x3c0319773962a491U, 0x3e1b4f97bd4cfca6U,
  0x3e2495d53e0dd4f6U, 0x3b4bd5c93e2f348cU, 0xbef73e37bd520ef4U, 0xbdc7db2bbe4ab4ecU,
  0xbe6357f0bebac420U, 0x3d35e86fbdf02d8eU, 0xbeb4ea763e338612U, 0xbd397557bdf58bebU,
  0xbe6602a0bd954e2eU, 0xbb7a9f17bdbf3a64U, 0xbe5ad7e9be5a5280U, 0x3cf808513dc0113fU,
  0xbd76637d3db4653bU, 0x3d0864083c216b87U, 0xbe9fb7163dbfb80fU, 0x3d7d6b943ea58c39U,
  0x3d3ecdedbe32bf00U, 0xbc6f84cdbc8770bcU, 0xbdc80737beacc402U, 0x3e09db243d3404a9U,
  0xbdbeb7283ddfd3a8U, 0x3e0df2c9bdfdefc5U, 0xbdf9359bbdc410d2U, 0xbc043accbd99ec27U,
  0x3bd96df7bd871f1cU, 0xbcdd986d3df83f7aU, 0x3eea4bddbd3f36d4U, 0x3d98e72dbe0a0469U,
  0xbdf09a61be919b93U, 0xbdc1ae2bbe2c1526U, 0xbc697cd9bc1f5cddU, 0x3dc301193dbcb39dU,
  0x3dc03b9d3e3279a5U, 0xbe2d1dccbb54cf9cU, 0xbe5865d43e920855U, 0xbd2d8c4ebea73838U,
  0x3ce951983cf5ef67U, 0x3cd4ec1ebce04e50U, 0xbebb0273be23e010U, 0x3e4438babe638878U,
  0xbe7d4fcdbe97d771U, 0xbe4d2e4d3e8b14b1U, 0x3e23b5c5bdfe8a19U, 0x3d869fbdbe4978dcU,
  0x3e7be4b43e25a87eU, 0x3c7f25fe3d87f10eU, 0x3e95bff8bdf0102fU, 0x3b0cdd63bd666dc0U,
  0xbe791d96bd0c8f0aU, 0x3dddc7693d56634aU, 0x3e9ab60dbcb61135U, 0x3ea43f743e2834dfU,
  0x3eb4c868be31e96dU, 0xbe67138c3e11311bU, 0xbeb8675fbe3aed93U, 0xbdb35e3ebe568abcU,
  0xbd80acd0be82cc0eU, 0x3cef1beebe4d678dU, 0xbc78b69e3ddfe198U, 0x3ddef1b6beb64724U,
  0x3b39eaa3be671ab2U, 0xbe90aa42be23bfbaU, 0x3d8723d23e7b3528U, 0x3dda4871be34e5b6U,
  0xbe9d5a83be506c18U, 0x3dfb9f373d162184U, 0x3d1abe15bd1f8abaU, 0x3cea35ed3dc0f01cU,
  0x3c3cf9c1bda33265U, 0xbd42150a3e814a37U, 0x3e7fd025bd2a6010U, 0xbda7577fbe4c0218U,
  0x3dcb7de53d7d87a2U, 0x3e5433b33e8738e1U, 0x3e1141ac3ed9eccdU, 0x3dcaf6a83dd18fd1U,
  0xbe0fbefcbdced381U, 0xbd9581efbc9d2940U, 0xbbc83ae33ee9ad70U, 0x3e3fcbd03e1b2b78U,
  0x3d624d9b3e6e97baU, 0xbdbfcd4dbd9099daU, 0xbd142b6abe12332dU, 0x3e9550c33e29943dU,
  0xbe188d37be9c21faU, 0xbe944da0bec4768cU, 0x3d79eede3de98843U, 0x3dfae7eebe8164beU,
  0xbe3ee2963cdea0d8U, 0x3ca07cfcbdfccbbbU, 0xbe291187be215722U, 0x3b4c2949bc3fd152U,
  0x3e989422bd11f6b0U, 0xbdf00784be5fdcfeU, 0x3d872bcdbd78b828U, 0x3d30eafebd82d028U,
  0x3e67fa4ebe316640U, 0x3dc213a6be90ce84U, 0xbe27ab4dbe124a59U, 0x3dbe0cc63e783eeeU,
  0xbe3f2f47beba4292U, 0xbdc36f273eb352c1U, 0xbe30079fba74fe1bU, 0x3e8e8cab3e5c43f5U,
  0x3d066433bdc143bbU, 0x3dd04f17bd8897f9U, 0xbcd88ccebd91648cU, 0x3da5317dbeb5ee86U,
  0x3d53a8be3e0159f0U, 0x3e80efb23e80f327U, 0x3ec73442bec7308fU, 0xbe4b8cf33e8df8fcU,
  0xbdc1698e3e4adc0aU, 0x3d6f60e13da4d023U, 0xbc5e9da3bdb68a5cU, 0xbdcb679c3e060649U,
  0xbe33fad13ed810f2U, 0xbebbf4b3be04703fU, 0x3d24ba47be9de710U, 0xbeaa7073bea3ab38U,
  0x3d864c86becd8750U, 0xbdcb8773bdfe4361U, 0x3da5915cbca4d75eU, 0x3e47e51fbc880d46U,
  0x3de261843e21f2b4U, 0x3d860de8bc092fd1U, 0x3d42eb6dbd0b7bc9U, 0x3e7c97073c758953U,
  0xbd7fe84e3dd9ef48U, 0xbe02c5963de037bdU, 0x3ddddaaabdde57c0U, 0xbe63a3c4be46b7dbU,
  0xbe52266fbb96a7bdU, 0x3c63e270bd14597dU, 0xbda0319cbd1a3a64U, 0xbb83f6143d088bdaU,
  0x3da79a9c3e9f89dfU, 0xbce24b793e25712cU, 0xbd21a997bd9bffc0U, 0xbe9427ebbd7fc288U,
  0x3d87489f3e5af184U, 0xbd17885a3e72eb6bU, 0xbdcfda5ebc41a26bU, 0xbe14ed38bd5ad9d1U,
  0xbe8d87953c5e0ce5U, 0x3dca4d403d4b3d59U, 0x3d8401b73e1135fbU, 0x3aacfdc7bd571822U,
  0x3ef6966cbd8c9fc7U, 0x3c1eb0593d110ec6U, 0xbd062ce4be2a2827U, 0xbceb20bb3d674af5U,
  0xbe82b0d33e844050U, 0x3b16966c3e33ba22U, 0xbe053c41bcf68ff9U, 0x3e1337bebe07c55dU,
  0xbd5e2b90be21a0f0U, 0xbc50d9b7bbe34588U, 0xbca506a93e00223eU, 0x3d79bce43db72d52U,
  0xbcb0d89abe4b1455U, 0x3de294583d671944U, 0x3e17e1623da77104U, 0x3dbc245c3d209eceU,
  0xbe579d223d57ec58U, 0x3e90100abdd18266U, 0xbe10d30e3e039e94U, 0xbdd56e47be414f72U,
  0xbcc55ebd3d84df09U, 0xbdbc1393bd32c93bU, 0xbe0b401b3e2e5fb8U, 0x3d938b89bde0d539U,
  0x3e31f8583dfee80cU, 0x3e77a897bbbcee02U, 0xbd7ac10b3dd20c17U, 0xbe2525b23ea3ff82U,
  0x3d5626e2be0fa1cbU, 0xbe4b77bdbe19bed2U, 0x3dd8e92cbcdc2c8cU, 0x3d5b3990be00ac96U,
  0x3ce7d0d7bdd7cfe8U, 0xbd2156a53dbc1332U, 0x3e86a67e3d96d75aU, 0xbdbfe04ebdd0da29U,
  0x3dac20053cc9f5a1U, 0xbd4e9fef3e2b8afcU, 0x3dab7d44baad6a9bU, 0x3da3dfe83bb90a86U,
  0xbc1f456ebd155af4U, 0xbe315c33bd03e813U, 0xbdd69f0dbe951114U, 0xbd0d42f8bdad3d5fU,
  0xbe4c0004bcda54eeU, 0x3dc4522a3cede217U, 0x3e6cf21bbe0efab1U, 0xbea5c2c5be09a1b0U,
  0xbe05fc88bcf8659eU, 0xbe4411143dc37887U, 0xbe30f7d9be2b03dbU, 0x3e8266713c97f67aU,
  0x3e8046d2bd4e03ccU, 0x3e940fd2bd2be0eaU, 0xbdf6e097be1437eaU, 0xbd39270f3c3be50dU,
  0xbe52d1663d0649d8U, 0x3e03ea84bd0ba8eaU, 0xbe04b7273dceed61U, 0x3d9ee9e0bdd8b999U,
  0xbdb91e02bd0c3898U, 0x3d8f8f7cbcab60ffU, 0x3de728cbbea23f17U, 0xbcb138bcbd4f8f33U,
  0x3d372c1bbdbdd858U, 0xbde887493e51c1a3U, 0xbdc606fc3e185c70U, 0xbc94dff2be13c0acU,
  0x3dbf4868be56bd2cU, 0xbe554c43be0e3e55U, 0xbe0a3ba23b12e3f9U, 0x3e758801bd06d707U,
  0xbbb1da00bd79ed30U, 0xbd39c4b93d847138U, 0xbd5a7ab9bd14c2a2U, 0x3d9a805c3dbb7d0eU,
  0xbe00ebe1bd1cc585U, 0xbd752df73d10a0ddU, 0xbdebdf6dbe044176U, 0xbe208a663de35d64U,
  0xbd203b6bbe1744dcU, 0xbd8604423dd5329eU, 0x3e8c6a893da4d6a8U, 0xbdc6d8cb3d5790a3U,
  0x3e289d873d61e715U, 0xbd8046a8be0c515cU, 0x3bdb7a933e80918fU, 0x3c4c86e73e4ee033U,
  0x3e552272be05af13U, 0x3e2123603b13836fU, 0x3e546d5a3ea943f9U, 0xbddfb1223d2f9df8U,
  0x3e85a5de3e035458U, 0x3dafe0a6be098449U, 0xbe89c73ebd3d9134U, 0x3d2e1f323e0dce02U,
  0xbc260b9b3d4763c1U, 0x3e33d684be1f9f6bU, 0xbe8648dbbd3451e5U, 0xbc812b7fbe6cd30dU,
  0xbd8b3fec3d44cd09U, 0x3e303bbf3e6019ebU, 0x3e1bb05ebe03507dU, 0x3e54b21dbb8701e2U,
  0x3e1c755e3cd0e611U, 0x3de107373c40eb84U, 0x3dad9845bd14f20aU, 0xbc9d040a3c0ee780U,
  0xbddba283bdeae81eU, 0xbe701591bd944b66U, 0x3e0d28cb3e06dc1dU, 0x3d803fa8be988288U,
  0x3e04cde5bd3a493bU, 0xbe058286bcc7cd06U, 0x3d212721bd713063U, 0x3d2a118c3dd735bcU,
  0x3e10700ebe0723aeU, 0x3d6869ef3d9b139dU, 0xba228ef83dbbaa4eU, 0xbd8314113e48329aU,
  0xbc4cfbb9bb2acceaU, 0xbdf5f72bbe1b7ad1U, 0xbdc297e53e358d32U, 0x3e1ee4333cea9754U,
  0x3e187341bdfc4b3eU, 0x3ddd287bbd293d58U, 0x3da4aaa13dde0e6dU, 0xbde752793d17b204U,
  0xbde414d6be5bf451U, 0x3d083df33e4f0d81U, 0xbe1eba353e848dabU, 0x3e4e1453bca501b0U,
  0x3b3887a3bd670a72U, 0xbddc7f6d3df3d417U, 0xbda6adb2be005dc4U, 0xbc2510b4bdb8a7d1U,
  0xbdfd46e6be039d58U, 0x3c773d14be00c3ecU, 0x3c6ce872bcc58e62U, 0xbcff85c1be8dec5eU,
  0x3dbb98f13d86c10dU, 0xbc2644103de11d12U, 0x3e80b3e73e3d91bdU, 0xbd55e6453abef4c1U,
  0x3d95ddeabe0c10acU, 0xbd2319693cea7880U, 0x3df1c42b3d0dee0cU, 0x3e4294e83d5efc9aU,
  0xbe6f43c43d2bfe98U, 0x3d3125b13c914408U, 0x3b3b026b398139feU, 0xbe4e27afbcc3cd39U,
  0xbdda28353d554142U, 0xbca9d3a83ccd928eU, 0x3c1d6be1bdef597dU, 0x3dec65fa3dd02c40U,
  0x3e8fe0573e1795c1U, 0x3df97bfd3e8eeb09U, 0x3d9c4a76be4a559fU, 0xbd82efdebe976c3eU,
  0x3cbc69993e2f0826U, 0x3e8759543e322f99U, 0xbdf000a3b8efff9cU, 0xbdc51a1c3d4ccf6bU,
  0x3dfa839ebdcca704U, 0xbe1d1966bded79f6U, 0x3e5df22a3da7b1aaU, 0xbe232517be3cf25fU,
  0xbac76f97bde5e098U, 0xbdaa7795bd8581d7U, 0x3e07151b3e2dacb2U, 0xbe16f1933d59026bU,
  0x3d0ac3113e1dd3b3U, 0x3b8f64e0bda553b0U, 0x3e2cd5de3eb2fbcbU, 0x3cc94b06bd720a67U,
  0xbdcd0531bd2bbb26U, 0xbe69cd9cbdd662e5U, 0xbd2477ccbc921eb2U, 0xbe68794fbcf3aa44U,
  0x3d31ebc9bbf0f9f6U, 0xbd9ac256bb884cf4U, 0x3d1df755bbbe4dc2U, 0x3bd8752e3db63610U,
  0x3cfe874c3d3c2746U, 0x3d8354203c2101ebU, 0x3c94855cbcbc5523U, 0xbd7f32a73cae4d0eU,
  0xbc4a14073d68480bU, 0x3a471b8b3e052b2fU, 0x3db18202bd105748U, 0xbe0d6a82bcd88196U,
  0x3d96a7efbcdba1c7U, 0x3e1b6c56be5f1aa1U, 0x3d216d023e58a153U, 0xbc749d21beabc0d7U,
  0xbd9c1b4a3d8db797U, 0x3e91d231bd2744f7U, 0xbdf37daabe8e74c1U, 0x3e04a2fa3dfd1754U,
  0x3c4ba5013e0f7df0U, 0xbd67c6f53de34211U, 0xbec02fafbd756ef2U, 0x3dcfb56dbe4f9d0dU,
  0x3d34a738bdc686b8U, 0xbdc52d2e3e16f650U, 0x3e3b558d3c91d500U, 0x3dc053a53d049e30U,
  0x3dc2253ebcec5cddU, 0x3d87084d3e21d936U, 0x3da098ae3dc3e9c8U, 0xbdac6c503ce6b3d0U,
  0x3c64f9c53dd55581U, 0x3c083614bc024d79U, 0x3a23a226bd46ad3bU, 0x3dc60b1c3bd002c1U,
  0xbe3c3104bc3c18e6U, 0x3d83639ebe0c0327U, 0x3d0b321cbe4d71e2U, 0x3e189e8ebcc0e6e5U,
  0xbe44f1393c83af84U, 0xbcb514e4bcc070bcU, 0x3db9b4573ed944f6U, 0x3ceab25bbe416561U,
  0x3e08f1febd7a52bbU, 0xbdada4ae3e26925aU, 0x3d5781303dce8f72U, 0x3c0b74603d33dcf2U,
  0x3e621ca3bcadf342U, 0x3ccf4cd1bc7575f7U, 0xbce616493e55b8d6U, 0x3de35b2e3e071566U,
  0xbde56d63be03d441U, 0xbcacb75ebe3c484fU, 0x3e25c8a73d8bc882U, 0x3e09091cbcb2319cU,
  0x3d6a81c0be40e18fU, 0x3def3a3f3d360b74U, 0xbdb9434fbe43c128U, 0xbe05ac87bc85f2d9U,
  0x3c0e30fbbe2bd6c8U, 0x3d62426e3e77eb08U, 0xbbceca22bde03a8cU, 0xbe6025463e147297U,
  0xbb71f5d73e590771U, 0xbdd99f2b3df87c01U, 0x3de5fdf8bd31bc55U, 0x3bf3dd1bbd951a2eU,
  0xbda63e5cbda73c4bU, 0xbcb64d90bdfe5dc6U, 0xbc60349bbd0a461fU, 0xbc645cf6bd1bc126U,
  0xbd2916c8bdaf2dddU, 0xbe2de86abe0d8e2bU, 0x3e108e18be45a175U, 0x3e0a60ba3c93f125U,
  0x3e2a56953e4a952fU, 0xbe37d2543d24a17aU, 0x3d0268253d7a69ecU, 0xbc873273ba910167U,
  0xbd32ac8b3e019006U, 0x3d11e2283d33c751U, 0xbe1c675cbe08ca85U, 0x3e09d7093d0de58aU,
  0xbd0cb7053c87053eU, 0x3da853a9be009a05U, 0x3e2a6b873e02b4afU, 0x3d2c27a3bd9a10cfU,
  0xbe4b11f6be1ea4d2U, 0x3e8c552b3e227dc1U, 0xbe427dd53e329397U, 0x3db012c33e21083fU,
  0x3d987fec3ce1a32fU, 0x3e2f3cc23da5f3e8U, 0x3d879e103eb851c7U, 0xbc25acf9bd07187cU,
  0xbd89160fbec44981U, 0x3df2a8c2be549082U, 0x3c9b61e53c07df64U, 0x3ec3dc73bde6ccc1U,
  0x3e810c543e3e5c9bU, 0xbc471defbd7d0e5aU, 0xbeb04a1d3e1a44e1U, 0x3e224b49bda03c28U,
  0xbe5ab5f1bec89378U, 0xbde04702be77cda1U, 0xbdb7ce833c4a9e56U, 0xbdfd952b3ecb6985U,
  0xbe43154fbe3d42fbU, 0xbe33ddfcbdcceb0eU, 0xbd3b3a10bd6d9cdaU, 0xbe30ef5e3d962756U,
  0xbe474b8abd7f07e7U, 0xbb083ab3bda675f4U, 0x3d01062f3c092be6U, 0xbaf6755dbe333351U,
  0xbe2e68bd3e20f310U, 0x3e0173c93c5e9779U, 0xbdc8816abc2e1864U, 0xbe0594b4bcab925bU,
  0xbe538b4cbe5766f8U, 0xbda6a3e8be127d8bU, 0x3e03b1833e5b9870U, 0xbdae29cf3e8b5a88U,
  0xbe034863bd84669bU, 0x3dfdd7bbbdb513ebU, 0xbe40d0c03bb2650eU, 0xbe36e8f5be14a913U,
  0xbeb5a6cb3e0e5055U, 0x3ecf397fbe5b8279U, 0xbe86520abd9f32bfU, 0xbeab24f13e3e2096U,
  0xbd58ea66be0042cdU, 0xbe125cecbea5d129U, 0x3e7365593cb83ab9U, 0xbd2f136e3e180e00U,
  0xbe061e43bc0a2edbU, 0xbbfaa3babe052180U, 0x3c5c7c63ba8570a0U, 0x3ddf025d3da76b93U,
  0x3e98d47cbe4f4b25U, 0xbd726288bd1117fcU, 0xbe32db0f3e502a96U, 0xbeb576cf3da8e4aaU,
  0x3d904bb6be1770b4U, 0xbd21be0cbe99096bU, 0xbe365762bd08217dU, 0x3ecebec03e15ddd1U,
  0x3c9fb5c73e8aca43U, 0xbe09aee5bdb7d26eU, 0x3e3f8e4c3c8bb387U, 0x3e91b0e33dc1e045U,
  0xbe6bace93e3b7923U, 0x3dd51e903e9e0f61U, 0x3e1a17bfbe44dc61U, 0x3e0b3bebbe480812U,
  0xba18e234be1e391eU, 0x3ea22d39bdc65b6cU, 0xbe664a183e0fc1f5U, 0x3d8c09893dab0261U,
  0x3df283a93df446ddU, 0xbe613e103e2bb427U, 0x3e3442c63de9c797U, 0x3e3d9235bdf1fe35U,
  0xbe1de935bdac3b89U, 0x3cc464503cae1e1fU, 0x3d0f5af6be8bc762U, 0x3e396670bb1f42e6U,
  0x3ca463d33e6b65d7U, 0xbe7ebc74be6aa803U, 0x3c97e5003dc29986U, 0x3e820886bda6b0a4U,
  0x3e4a3cd4bc4cb593U, 0xbb6cad703e59a391U, 0xbde667f13be7582bU, 0x3d71c9053d5faa2aU,
  0xbe44f356be374bc5U, 0x3de77fc8bce6025dU, 0xbd0349e7be884e4dU, 0x3dcb088c3d3ba913U,
  0xbddffbe7bd9fc9f8U, 0xbe3132e43d24ab77U, 0x3c7d9f0bbd627092U, 0x3e757367bca0a1a4U,
  0x3e51e34c3da4abc7U, 0xbd96fc283ddf3be2U, 0xbc8585883e3a4725U, 0xbe17ee90beed79c7U,
  0xbe2c1f9d3adcf121U, 0xbdda6a55bcb71dd8U, 0xbe2ca4c43ea6bb8dU, 0x3e28f394bb89193fU,
  0x3dd799363e1356b0U, 0x3e7b88afbd4b186dU, 0xbe26de833e5d2ba1U, 0xbe6c945b3931b46eU,
  0x3e5d57b4be161d12U, 0x3e02b207bebe2cb2U, 0xbc8b69cf3e170f29U, 0x3ef60fe5bdb3d2ffU,
  0x3d8318acbd5a72d0U, 0xbd54dcc8be608d21U, 0xbe9e848ebddc30f1U, 0xbc410857be549f2eU,
  0xbe8ee9c3be249c35U, 0xbdb50c3cbdb8d9d7U, 0x3e00feb13e848356U, 0xbd15ae753d70d408U,
  0x3e04dcf43d91bed8U, 0x3e2f00993e1ec674U, 0x3c7c00a7bed98013U, 0x3e523da6bd06226fU,
  0xbdd6bdb2bea222b6U, 0xbcf624423e4362b1U, 0x3e0bb7143ca72704U, 0x3ddb877a3db175fdU,
  0xbca601213dcfa6f3U, 0x3de47fd53cd51bf5U, 0x3edfa8e0be710aaeU, 0xbd737a903d9cb891U,
  0xbd13bc5b3e309395U, 0x3e503ef53e1d9957U, 0xbddabcc53e24f693U, 0x3ec8d87e3e4e0f66U,
  0xbe05dab5bda2b858U, 0xbda29ce5bed293b8U, 0xbeab202bbef415b2U, 0xbd15e2e8be82d642U,
  0xbd452f8b3e391004U, 0x3cb9e8893dd4b5a2U, 0xbe0f41693e33df3bU, 0x3ea46c563e977b7aU,
  0x3e26956dbe06ebe8U, 0x3e2f2dc73e7568a9U, 0x3e653a91bd0aad90U, 0xbea103523da64707U,
  0xbd9ee1483d496800U, 0x3e29e98b3e135315U, 0x3e8ec0393d9973ebU, 0xbcdaf515be08087cU,
  0xbd5f0860be1cc0bbU, 0x3dda4589bd2c65e6U, 0xbdcd4b9abdfa3f52U, 0x3db66a0d3d1924bbU,
  0xbcf65a5ebe27820bU, 0xbe342e07be6b7a89U, 0x3d97cd42be6cde72U, 0x38c02001be6d3efcU,
  0x3c6a8a7e3e1564f0U, 0x3deecef8be01af9fU, 0xbd58dd543e212063U, 0x3d33852dbdbef70cU,
  0xbe62cce93c9dd6f3U, 0x3e75cd43bd9034b6U, 0x3dd5ea68bd856bacU, 0xbe44a9f13e8ef019U,
  0x3d07db9d3e131e96U, 0x3dca32303e2db1e1U, 0x3ebebc20bdfe7f96U, 0x3d639f953beaeb7fU,
  0xbe1b7dee3bbc2631U, 0x3d20ee5fbe7c14dfU, 0xbd8a9a93be2d05eaU, 0x3e07ef283d26f59aU,
  0x3c5f73edbde088a5U, 0xbd1e2c403dabe1adU, 0x3d3efbdd3e02bc90U, 0xbd7558323ce4afc2U,
  0x3c6971e7bea08375U, 0x3bc98f513cbaada6U, 0x3ba4d57ebcb3ffabU, 0x3c939771bda370dcU,
  0x3d9eacd7be42bb31U, 0x3d0ce49abda38ecaU, 0x3cc976213e4f019dU, 0x3e1b74aa3db548cdU,
  0x3d159e3f3ec1da11U, 0x3e0185db3caa09cbU, 0x3d731425bbae56d7U, 0x3d27aefdbdfb9eccU,
  0x3e05bb6ebeb544e9U, 0x3e72f079bd934156U, 0x3afe28bb3e132465U, 0x3db782e3bd7e97deU,
  0xbe17e9ffbdc7108dU, 0x3ca9d2473bcb1162U, 0x3e1652d9bdb506aeU, 0x3e5f4b1ebd882ba6U,
  0x3d2b5ff8bd43dbd6U, 0x3dda7b3a3bf4d835U, 0x3c9bba1e3e963970U, 0xbe38ac53bdc44869U,
  0xbd0ccfd8bd2a9013U, 0xbe0279e2bdebad51U, 0xbe74bae3bd193934U, 0x3d0148b5bd0d1d2dU,
  0x3ec611b83dc338feU, 0x3e4fcd1c3d0a8a27U, 0xbcdba0133ebcadc7U, 0xbec8aeaebe5fa650U,
  0x3d7aa4c1be63704cU, 0xbec4f308be801c05U, 0x3e216258be9df604U, 0xbe97f86d3e1bd368U,
  0xbe0cfd68bd0e8f68U, 0xbea5bf30bdd7466aU, 0xbde18835be2d63afU, 0xbc418649bd351de1U,
  0x3dd3e8203e5fe853U, 0x3cd92aa73d460afeU, 0x3c81348d3e36712cU, 0xbee7e36b3dd1a4d9U,
  0x3d6f8a7c3e98b697U, 0x3e843f713c5ea872U, 0x3e12e94abd8ce51dU, 0x3ce71142be947071U,
  0x3e3e60adbd68d2b0U, 0x3d3f74933dd1d2b7U, 0xbe006e43be84bc0bU, 0xbe55eba6be84bab8U,
  0x3de8749dbe625ea9U, 0x3d4a2e173c219986U, 0x3da42d963e6a2094U, 0x3df013293e1f7c24U,
  0x3dc3e057beae935bU, 0xbe9b4dc2be1f9410U, 0xbe1cfeae3e112d91U, 0xbd7f609fbe571d90U,
  0xbe09111ebd896a0dU, 0x3c104093bdaac3feU, 0x3d4888ef3d23250cU, 0xbe7397d03d88b921U,
  0xbd82c414be29d86cU, 0x3d0807c2bdc57da8U, 0xbcb5e272be4b5923U, 0xbec39038bdacb07dU,
  0x3d88af7dbe193b77U, 0xbb6c7ba6be1232c0U, 0xbe7206723dd833feU, 0x3e016f9c3e7072afU,
  0x3e3ba102be22b63eU, 0x3e01cd823b7153c1U, 0xbe10f7debd7c5dc0U, 0x3e7ec309bda18756U,
  0x3d02c3b93bc622c4U, 0xbdbb81ec3dedd59eU, 0x3e534ee33ce4b1fbU, 0x3e8dacc93e1cb6e8U,
  0xbb2a5218bca0c553U, 0x3d90b680bd3e5c4aU, 0xbe892962be699cffU, 0xbe68a669be3a4404U,
  0x3eaff7fabec4dc9dU, 0xbe1fb53cbc1f45abU, 0x3c9724423d594983U, 0xbdf0d0f33e257acbU,
  0x3e0b6be7be442bacU, 0xbe5b8195be1fb062U, 0xbdd6cb10be14d873U, 0xbda3c7fc3e8e486bU,
  0x3d29d3fbbe217369U, 0xbe3801c3be34af01U, 0x3e840ce73d34e680U, 0x3dfd301d3de3b97aU,
  0xbe339c9ebccf2f94U, 0xbde8ce23bdf591a3U, 0x3db8b028bb2c20d1U, 0x3e4121013dad58c7U,
  0x3da5973e3cb6ea1aU, 0xbc38f1abbe25a367U, 0x3ddf8ba03e07424fU, 0xbc0eb9493e889226U,
  0xbe10ce79bce2b54fU, 0xbc4da35c3e5e1a5dU, 0x3d8eb906bdfd667dU, 0xbd55bfaa3e542ae8U,
  0x3e7ae0b63dc56fbaU, 0x3e066d443c3caa4eU, 0xbe1b15b8bd827e6fU, 0xbe601728bd43370fU,
  0xbe17eed8bd988532U, 0xbe0c212cbe83886fU, 0x3ce0e9a5be99a8f2U, 0xbe1a44f93e1328c5U,
  0x3e7b2957bcc9ba55U, 0xbe2c0c153dfa25f0U, 0xbcada4d93dac3e91U, 0xbcd93708be938e0aU,
  0xbdaa42c5bdb1ad26U, 0xbea70d52be0e8cedU, 0xbc587c9ebe35740dU, 0x3d037130be9bbcffU,
  0xbe3125073e3594adU, 0xbe2d65b2bdee2da6U, 0xbe20abfdbef17120U, 0x3e541fbdbe917bccU,
  0x3df65b753dae41a9U, 0xbd90a1dcbdab144aU, 0x3d375d393ef3de72U, 0xbe2298173d969922U,
  0xbd62ee46bd728850U, 0x3d29d250bd4bfd77U, 0xbce45ddf3d0976a0U, 0x3c9eeadabd7cf46cU,
  0x3e85912cbe8d4abaU, 0xbe7e2d973dda26c4U, 0x3d93a3c73ea2ecbbU, 0x3e8eea96bf08d0d9U,
  0x3d737b8e3e987884U, 0x3e16ddb3bc89b937U, 0x3c91eb8c3e249216U, 0x3d3d04f73e4a3608U,
  0x3b5046a53bc0f953U, 0x3e2e9887bc0cf17eU, 0xbe9262f1bcdcff09U, 0x3d20e7a53e9bb11aU,
  0xbe3c8ffebe6a1401U, 0x3d95bfbdbd4e0fb0U, 0xbd87af6fbc972cf0U, 0xbd5d9affbd07a485U,
  0x0U, 0x0U, 0x0U, 0x0U,
  0x0U, 0x0U, 0x0U, 0x0U,
  0x0U, 0x0U, 0x0U, 0x0U,
  0x0U, 0x0U, 0x0U, 0x0U,
  0x0U, 0x0U, 0x0U, 0x0U,
  0x0U, 0x0U, 0x0U, 0x0U,
  0x0U, 0x0U, 0x0U, 0x0U,
  0x0U, 0x0U, 0x0U, 0x0U,
  0x0U, 0x0U, 0x0U, 0x0U,
  0x0U, 0xbd5a633600000000U, 0xbdc135233d6887fcU, 0x3e2b3ad83dd3c95aU,
  0x3c3e81983e162b29U, 0x3cb1d64b3c1d751aU, 0x3c9e0f183ddec80bU, 0xbc58ecf03bad1551U,
  0x3e016c283bfaa5c5U, 0xbbbe674e3bda3918U, 0x3b547f1f3e2e4800U, 0x3cb68d973e1b9f41U,
  0x3df07e77bdd75b7dU, 0x3e479605bc92342fU, 0x3f82ec5e3f7c451bU, 0x3f8b377a3f7c0249U,
  0x3f84b8ff3f8d9ed0U, 0x3f8814e53f83f8ecU, 0x3f8bd80f3f80990fU, 0x3f8058503f827c0bU,
  0x3f84861a3f7fd94eU, 0x3f8847033f90790aU, 0x3f8511b73f7f770eU, 0x3f946f4b3f826201U,
  0x3f6a56453f813579U, 0x3f7d89c13f80b81eU, 0x3bc6edda3f985ddfU, 0x3b75e57a3c383ec5U,
  0xbcbfe6dabdbfffe9U, 0x3ce1da6d3d06d615U, 0x3d0a99ecbc864bf6U, 0x3db513a93d22ff35U,
  0x3e27ea0c3ad8485eU, 0x3d31b5a13de53c9fU, 0xbc9d52cc3c883e24U, 0xbd6331443dc234bbU,
  0x3d242ec9bd6d0dfdU, 0xbd8cf0833c522be7U, 0x3d179b62bbbc0f6fU, 0x3d7b8f82bd668829U,
  0x3d70a10e3c818ab4U, 0x3ddcd2853e164a7dU, 0x3cb6f3da3d4c48dbU, 0x3e4876acbcc403ceU,
  0xbcd6e1863db7c5dbU, 0x3d0a60ecbce195d5U, 0x3e2d59173d568fa0U, 0x3dbedd4b3ccd5728U,
  0x3e31d54b3d1bf298U, 0xbde446d03d5225c3U, 0x3d96ec223e0cbc8aU, 0xbd8a56683d0d6652U,
  0x3dd9cf0ebde9fc68U, 0xbe9d23fabd9c5f43U, 0xbc9bbe5fbdd63491U, 0x3e20e5f6be140bd4U,
  0xbd45be21be81b44bU, 0xbe09fe92bccb406cU, 0x3db448993dc61adcU, 0x3dbae96e3dac5c85U,
  0xbe24540abdcea916U, 0x3e300b47bddb06a1U, 0x3e2c72c8be038761U, 0x3d873efd3e948590U,
  0xbd06ba35bdd35175U, 0x3dae195abe89267fU, 0x3e084bdcbe0cfad8U, 0xbe3d0699bda865ecU,
  0xbc9eaa003cfeea19U, 0x3db4443cbb8a0269U, 0xbe7af54abe65fd2eU, 0x3c279d16becbb026U,
  0xbd5ca3383e3c1c33U, 0xbe03ee1dbe094892U, 0xbde69e7cbe7c78c9U, 0xbdfba227bdf901a0U,
  0x3e1054ea3eaf75d0U, 0x3e1af2143e74c523U, 0x3e87e9493de30880U, 0xbd9271323e7c8935U,
  0xbc7720b3396df90fU, 0x3eb4268c3e25b0fcU, 0x3df58780be874745U, 0xbc70c976bea53348U,
  0xbe1a1e5c3e38ab8bU, 0xbdda7ac3be6b5c96U, 0x3ed9b2b83e45fb55U, 0xbe513cf6beb5dcf2U,
  0xbe885f1fbeb3942aU, 0x3eb13efbbd21bacfU, 0x3eb64db63e3e5595U, 0xbe2398743da10151U,
  0xbeac7dea3e65f285U, 0xbe919b02bdf5a771U, 0x3ee6230fbe4c4fe0U, 0xbd0bd849bdec1f4cU,
  0xbe1c7336bbb4610eU, 0xbe91e7ee3e25e1a1U, 0x3e1876c23de59888U, 0x3e00ec92bd57232dU,
  0xbdedfb2dbe39c2bfU, 0x3db02d35be315116U, 0x3d7c7f363e96bbbaU, 0x3e539574bc572e4eU,
  0xbd2d57f43e608d4bU, 0x3db7c6f33da0139aU, 0xbe61895d3da00b57U, 0x3e84ca5cbe13e0f7U,
  0xbdc0200abd012d70U, 0xbcf2f2d33d866ef0U, 0x3ea4f1edbe358645U, 0xbe41f4503e36609cU,
  0x3d6af7f0be37576bU, 0xbe35bc2b3d080b59U, 0x3e7ad3463eb62368U, 0x3e58ef2a3da0dac7U,
  0x3dc64e453d5f7ca4U, 0xbe9269093e34ab2bU, 0xbee3d788bec2803eU, 0x3e8dcbf0bd981618U,
  0xbee2dfb13e5e4520U, 0x3d8d3f37bc96aeacU, 0xbe7f0f8d3d6b7765U, 0x3e257233be031b9cU,
  0xbebbd24fbea5bc30U, 0xbe1f619b3e4a5a30U, 0x3ea9487e3db3543bU, 0x3e7d5d5cbcdfa19aU,
  0x3d7a4a6dbcdfc96dU, 0xbab9afe9bd253ec4U, 0x3df09b253e0de43dU, 0x3e5514303dc11049U,
  0x3eb391e6be4b01daU, 0xbd39510fbd8437c0U, 0xbe31bbb13bfe75fbU, 0x3ed143a7bdf40e87U,
  0x3ea30a923e763cceU, 0xbd3b0ee83eb50009U, 0xbe8352843dbe1d82U, 0x3ebc14033e1da0b9U,
  0xbe3bceb03e869f77U, 0x3d23b2f8be2741a9U, 0xbe7705d0be888680U, 0xbcdaf7013bf0c88eU,
  0x3d677b673e92568bU, 0x3e7101a33ec73d6fU, 0x3e9043d73ca68f14U, 0xbd387ba0be982784U,
  0xbe207934bdf30217U, 0x3e9398b83c603742U, 0x3e834b38bb25e4abU, 0xbdbc329dbd8f128aU,
  0x3e2b07ce3e1ceec4U, 0xbe7dba613be72d83U, 0xbd9eb2853de2c0d5U, 0xbc4a20d7bdbcca3dU,
  0x3dd2967f3efa852dU, 0x3dd1ee68be0be3f8U, 0xbe7ee024bdef2321U, 0xbe12f49cbdda09e0U,
  0xbe0e5b10bd44e47dU, 0xbe154735bea7f877U, 0x3dde5f5bbc8c2b28U, 0xbe1c807cbe6c8cc7U,
  0xbe3aa6433e777f2bU, 0xbea994de3e5b67c0U, 0x3d950c63bd923630U, 0x3e7528693da31243U,
  0xbe454e403e2c32f0U, 0x3e087035be84b3d2U, 0x3e3a4b16bcfd6485U, 0x3ea49cf33d117ddaU,
  0xbbe8fcb33c25ca33U, 0xbe0fb5313ea1c674U, 0x3d905627bdf46701U, 0x3eb19b683dc1b17aU,
  0x3e8d17c63e05562eU, 0xbd8300c13e1b8179U, 0xbed6c4523e2089b5U, 0xbe212327bd9914d2U,
  0xbe18fe3f3e326c68U, 0x3f0299b73f5b07c5U, 0x3e53ad873e039ac0U, 0xbcb94b28bd203aefU,
  0xbd8da98fbeaa8eb2U, 0x3d03e7193e0666faU, 0x3e6b235ebe17748bU, 0xbedb03f73efdc093U,
  0x3e399ec6be9f269aU, 0xbeec05e4bf4350bdU, 0xbe90a885bf221af4U, 0x3e0cd1613e44271cU,
  0xbd3d70b53e5bd78dU, 0x3d2758b23e0e61feU, 0xbe9585fc3d374aa5U, 0xbca24573bd86d221U,
  0xbdb76b1a3e397f50U, 0xbe44fcac3e02d29aU, 0x3bfcb3dcbdf405b3U, 0xbe15210ebe21c0ebU,
  0xbe8fe021bed68efcU, 0xbe9537ae3db17d3cU, 0xbcc4d5553e6b0035U, 0xbe403453bc032070U,
  0x3e6f96213eaf043eU, 0xbddcceda3e15cf55U, 0xbef58663bdf41269U, 0xbe085b21be3e517dU,
  0xbf04272ebe94b263U, 0x3e5583e0bdd6a2e4U, 0x3e8db515be9dde15U, 0xbdd7c20e3d9cdd4cU,
  0xbd55ed26be13f747U, 0x3e1afe51be68066eU, 0xbeda02ff3e0c61acU, 0xbecb0d133d38dc7eU,
  0x3e578ae13e8ddf04U, 0x3dacae3abe900591U, 0xbe8bdfe93a357338U, 0xbbb1de40bd364f9fU,
  0x3eaec93b3e6e8d9dU, 0x3eb7363b3b081843U, 0x3e6fbff03e698cbdU, 0xbb3a72ce3eb96c04U,
  0x3dd962583cd8e701U, 0x3e859772be067312U, 0x3eca3cda3de65389U, 0x3d45e1413e28731cU,
  0x3e33842cbe401841U, 0xbd0ae524bd9869f1U, 0x3ddd6fe2beac89d2U, 0x3ea1860d3d587cc3U,
  0x3e48421d3e0a1997U, 0x3e05772ebd66d30bU, 0xbe3824d43dee2790U, 0x3e2bf4533dff15cbU,
  0xbc40101abe0fe3b7U, 0x3c7198b5bcc1250bU, 0x3d0db8773e9b51b9U, 0xbd48e9bebe53803dU,
  0xbdb27c01be4e5348U, 0x3e89fc1f3e69866cU, 0x3e3269663e5ae742U, 0xbf082583bdfb3a65U,
  0x3ea8e510be83f62fU, 0xbdd5baf9be568e42U, 0x3dd8f6263ce3bb22U, 0xbed3079e3e730a51U,
  0xbcaa607d3e0dac4eU, 0xbdbcb9c13c8a288bU, 0x3df65121bd2c2929U, 0xbd3275debe9e2d13U,
  0x3e77638bbdbb1f4cU, 0xbe625728be1fb403U, 0xbeb0e6bdbe987b11U, 0x3eb1048c3dd11c1bU,
  0x3defd31cbe36afdaU, 0x3e0b957dbe053408U, 0xbd278e2ebd4a13daU, 0x3e5982cf3de7bd25U,
  0x3f36c5fb3e109e24U, 0x3d81de5c3ce6a34dU, 0x3e7a1690bdb14b78U, 0xbd7739803ec83f1aU,
  0xbd9ea8ae3d5b26a6U, 0xbe243114be1d9634U, 0x3e0613e83d374ce7U, 0x3d20f3b5be10587bU,
  0xbdca3b583e59c094U, 0x3e53e3323cb40957U, 0x3e8548263ebde876U, 0x3e32408ebe48ba43U,
  0x3bd57c823dd6a12eU, 0x3e528a9d3e4f503cU, 0xbe697458bd533597U, 0x3d55dacc3d8c3ad4U,
  0x3e2bd7a1bd439e73U, 0xbcb2ec7f3e52b171U, 0xbe0266743df13995U, 0xbe4d5b713c44f476U,
  0x3e7249ee3de3fce1U, 0x3d896412bc4dc9fcU, 0x3a8e6c133e0ecbefU, 0xbbb32eebbe23d66aU,
  0x3db870e83d8ac4efU, 0x3d5b8fddbe994f11U, 0xbe5236963da582e8U, 0xbe4fd159bd225f47U,
  0xbe6c0c0f3b9f2445U, 0x3e13f4b83e0d29d8U, 0x3dffd6edbce50d77U, 0x3ea29c4cbe99ed59U,
  0xbe23c36b3e290ceaU, 0xbde1fa1cbd844389U, 0x3ec36a743dbb0794U, 0x3dc9fa693c659ff0U,
  0x3e01fa373dda2be7U, 0x3cd633ae3d92aa9bU, 0xbe4bfe78be8b3ec2U, 0x3f0c85973e62c23cU,
  0x3cc32772bd736298U, 0x3e6f2b76bd349b56U, 0xbd44b1e73f3b0aa7U, 0x3e11f63ebcc977c9U,
  0xbe3525f9be502f19U, 0xbede68a53d235b69U, 0xbdbad2cbbe0be6dbU, 0x3e1249db3e80fa6fU,
  0x3e8a5a4fbc496e05U, 0x3d189468bde3265cU, 0xbe1ac5d33e754f73U, 0x3e5c3acb3d4413b0U,
  0xbe2326cbbddc9fc0U, 0xbe08b3243c862b92U, 0xbc138d233e80a3cdU, 0xbe3300abbe216478U,
  0xbdc203943d19dce9U, 0x3d4214573d23c801U, 0x3e975ee33e8b9d91U, 0xbcbaf253bde2f85cU,
  0x3e4166ab3e70b73fU, 0xbe1271e53e42587bU, 0xbe4767c03dba4e1aU, 0xbdfb6b653de6fd2dU,
  0xbe71072a3da3a68dU, 0xbe26c4783d9d00b9U, 0x3d3d36efbc1acf8eU, 0x3dfff9a0bcc1a188U,
  0x3e2a10073ddadd57U, 0x3db208fd3e1e7822U, 0x3dd14a52bdcd3a4fU, 0x3a88e4fdbee665d2U,
  0xbe0d00f43c4e6583U, 0xbe5d6a02bd9bc3c6U, 0x3e7e567d3ec57b04U, 0x3de06fa5be8d1586U,
  0xbdeb31613da4d620U, 0xbdcb38d83e23fcfbU, 0xbe4c7d3cbe8b840cU, 0xbe6763683e17d7c5U,
  0x3e7f4a533e6c9506U, 0x3e9b52143ce132d8U, 0xbe2a26a23eb737f0U, 0xbc66273dbd314549U,
  0xbdaed9eabd28919bU, 0xbea39fdc3e42a480U, 0x3e53165fbea693dfU, 0xbeba2041be0674e1U,
  0x3dd52e0ebe446186U, 0x3ddfeb4f3e1c3836U, 0xbeb6bd0ebeae6523U, 0xbe39b5b5bd5bc925U,
  0xbd8973923eb62e53U, 0x3dc2b7f83c719d98U, 0xbe209935bd81e081U, 0x3c118b243d19e678U,
  0x3e4c6cbc3e0cd470U, 0x3e1f0d1bbd8e6f51U, 0xbe4140fb3e92a5d2U, 0x3c8ce527be3610a5U,
  0xbd9678f13df71f32U, 0x3bcbe5f03dac0c09U, 0xbe165c063e909250U, 0xbd534cbfbd1958d7U,
  0xbd24d089be8ae3b1U, 0xbd4e3f3e3e5834c2U, 0xbecab0afbeb36473U, 0xbef02e47be574890U,
  0xbd73f6d13ead0a7bU, 0x3e821ada3e534028U, 0x3cf903aa3e7813c6U, 0xbd0cac27bd154a34U,
  0x3e27da83bd838ca9U, 0xbe20ecbbbe194062U, 0x3e8c94c53e560e16U, 0x3dd787fe3ecabafcU,
  0xbe19ce4abc160c8dU, 0xbdd498d63e3c26e8U, 0xbec8f5283de4bb6aU, 0x3ea6d96cbdb04c4aU,
  0x3ddbce36be5c53cfU, 0xbd52ca6bbdd6ddf0U, 0xbe1922293e82f0e1U, 0xbe061e01bdcd9cecU,
  0x3dc051a2bec2132aU, 0xbc6cb029bed9ca9eU, 0xbe8d72febc5b9dbcU, 0xbd88f701bdd5148fU,
  0x3c51f9873d34f35cU, 0xbe0cb969bd37e3ddU, 0x3e32ae9f3ea5b876U, 0x3e3c97913dfa7b61U,
  0x3e8353f53d949f1bU, 0x3d0f42c3be1f0dd6U, 0xbe7218943d9f533fU, 0xbe05e7f93ea73685U,
  0xbe3b3d01bea48a33U, 0xbe5b85fdbe088b71U, 0x3d0779fa3c5c81deU, 0x3da4e4053e11aff7U,
  0x3dc9059dbdd3cf4cU, 0x3db038eabd63434dU, 0xbe623a0dbe391195U, 0xbe95ff65bd915014U,
  0x3dc55bf43eca5b19U, 0xbd0c4a7d3df76436U, 0xbe157f3d3e443957U, 0xbcad433fbdbd703bU,
  0xbe9cb237be55f613U, 0x3e8c3933bdf81149U, 0x3e81c652be6dd3e7U, 0xbe19169ebd4b1946U,
  0xbd965d51bda6ffa3U, 0xbd85fb83be989567U, 0x3eecfe173d160f00U, 0x3de120d63cfcd205U,
  0x3e69ff6ebc05abe2U, 0x3e85d7973d9cb1f3U, 0xbdfaed1abe338d8eU, 0xbe32b685bc26f945U,
  0x3d8ca0ca3e6b2c63U, 0xbd00a606bd079937U, 0xbe987cc63eb54d46U, 0x3e7483153e884579U,
  0x3e84d84fbdb191a3U, 0xbf194e323dea058bU, 0xbd78185fbe30fdbfU, 0xbd02329f3e553a79U,
  0x3df6c8b83df99d2eU, 0x3d9774de3e08767eU, 0xbeea866c3d9d94c6U, 0xbd884c5d3c93c181U,
  0x3b278ba7be6b1717U, 0xbd45b57ebeba3bceU, 0xbdb7eb0ebd419891U, 0xbd4da44bbdd0034fU,
  0xbe9223783d9a8dd0U, 0xbcd35568be775ea5U, 0xbcba0e7dbe9f52cdU, 0x3e007c943cbfb7b5U,
  0xbe5136803e7ccd6aU, 0xbe7c4874bdce81caU, 0x3e03273e3dcbbcedU, 0xbdab601ebd9ec9c5U,
  0xbe8dfef63eb2d221U, 0x3e963285be012700U, 0x3e4a882a3da98a2aU, 0x3d2225353e0d4f81U,
  0x3e6d275b3f074afaU, 0x3e362d313f1aa320U, 0x3d9ae9f23ca8875aU, 0x3e0d4f68bed0f91eU,
  0x3e1c7787bd60a40aU, 0xbe72ecd7be1cfe8cU, 0xbd57c54fbe25984fU, 0x3e1f7776be8de852U,
  0xbd5c9ccbbe2036a7U, 0x3ebf50bcbd8f3e6dU, 0x3e404373bcbe300fU, 0xbe7de69d3e996100U,
  0xbdd0f5103d42b31dU, 0x3e4eb067bd94946eU, 0x3e7f0e9a3d918157U, 0xbe655f663e9e7b90U,
  0xbc824f59be227a6aU, 0x3e4a6ce6bebd2ffeU, 0xbe0cfd3abe434a39U, 0xbd88cb55be664232U,
  0x3de11c77bd0a333aU, 0x3e427b573e128cc1U, 0x3e1a1121bce76bbdU, 0xbe91573cbe3d2ed5U,
  0x3e1a8e433ec08121U, 0xbeebbaa03e365648U, 0x3e7fae98bdbcfb50U, 0xba96900e3dcbdbbaU,
  0x3d9a4c4f3db5248eU, 0x3d80b414be9b8754U, 0xbebf4df03e09d28aU, 0xbe05f8eebd44d12fU,
  0xbd054192bd327b58U, 0x3c37b7bdbe583e61U, 0xbda11a2f3e78d526U, 0xbd6a4fe7bd64c04aU,
  0xbe638d433e38c2cbU, 0x3e005a553d43b5cbU, 0xbc122e60be8be694U, 0x3e629a30bc842355U,
  0xbda92692bdc86dc7U, 0x3e8f2f873e41774cU, 0xbd14ab363e5bac00U, 0x3d73ac0ebca8697fU,
  0x3e11d5b4bda53206U, 0xbe088413be28a379U, 0xbd55b3313e1ddf91U, 0xbeb397f83cf70181U,
  0xbe0fecbebe98a372U, 0xbee7b3253ef2c998U, 0xbd86b7d93ea44672U, 0x3cb5f61ebe0eadeaU,
  0xbe5cfdd43e01c066U, 0xbeab83f0bc100e6dU, 0xbe3bc781bed552f1U, 0x3d8106fc3eb328bfU,
  0x38dacab43f291b7eU, 0x3d7be556bca5294fU, 0xbe866183be4d21c9U, 0xbcef427e3ec5397cU,
  0xbd7b70a0bea94905U, 0x3c4774a9be8a4e8bU, 0xbe9b5716beacc079U, 0xbe6571673cdf8f6bU,
  0x3e4142a6be951107U, 0x3e5bdacabd56ce38U, 0x3dd292c63e064eb8U, 0x3e67d0073e0985ecU,
  0xbd8d54e63bcc8f16U, 0x3e0c8372bc8a0b53U, 0xbe69c753be8dcc73U, 0xbd82f35a3e3a36acU,
  0xbe975d1a3d9b8d76U, 0x3d93c83fbda80bdeU, 0xbe729cdc3e5095c1U, 0x3dce89413e062e66U,
  0x3cad71083e25d3e8U, 0x3c353e0cbe46b572U, 0xbea195c2bde659c3U, 0xbe9eeeb4bece7719U,
  0xbe40d890bea90840U, 0x3d1d0254be1669f0U, 0x3dbfdd19bace88fcU, 0x3db0c6ae3d2e6888U,
  0x3ca99a9b3e1e4b8dU, 0x3e3c301d3e67e0ebU, 0xbccea9363e00beecU, 0x3e1bea3a3e2c7eecU,
  0x3e9cb25fbdc0fce3U, 0xbdecf2643e54b86eU, 0x3e5aa0c73d82ece6U, 0xbe13e4b63d729f48U,
  0xbef08c643e25934fU, 0xbdba5f0abca57714U, 0xbdbde20abef3ad45U, 0x3ef27b513ecce770U,
  0xbc21a6003e834d47U, 0x3e9644da3e997c4fU, 0x3cf285d03da9f33bU, 0x3e4f6076bd72a443U,
  0xbea0bcfe3e05f73bU, 0xbd90ab053bf75b30U, 0x3e91acb1be205e50U, 0xbe7c37c43e6e75eaU,
  0xbebcc0c7bd9ed12aU, 0xbe3e07a43ab7170dU, 0x3d9cceb13ebc5ed8U, 0xbe0b8b68bce5f53eU,
  0xbe86d6043edbda20U, 0x3c48c0b83ded5001U, 0x3dc0f234bd855c38U, 0x3d7c7e94bec0671eU,
  0xba83d85bbe1abd05U, 0xbe065b5e3d9e8d2cU, 0x3e2e4bb2be4e68e4U, 0x3e3b5541bed6e151U,
  0xbea78d70bd141f42U, 0xbc62898b3ea71e58U, 0x3dbf568ebe4ae91fU, 0x3d8ad65dbe3b76b9U,
  0xbcb793003d0a28eaU, 0xbe0c56033c0375e3U, 0x3ea60aa53e098717U, 0x3e57f3d7bc5c8e64U,
  0xbe66ac1b3b72e9afU, 0xbe70d5d03f320627U, 0x3dbc37e53e7d1393U, 0x3d280d73be69c40eU,
  0xbe871c48be532053U, 0xbe6241d83d5f5b20U, 0xbe6d2724baa8a30cU, 0xbd34a8003e2cb0fdU,
  0x3e70a8433bd8d79cU, 0xbdde34cabe1996f8U, 0x3e6050103e940befU, 0xbd178fd13e0a7b04U,
  0x3e87c7863d2edf7cU, 0x3d8653e0be9f0fceU, 0xbd91fd9abc61ad1aU, 0x3c69b2c4bd003d9fU,
  0xbd850b94be677b43U, 0xbe4c5cf73d95c41eU, 0x3e3de701be0e698aU, 0x3c76e275bd3db9ebU,
  0xbe551446be9486b9U, 0x3d8eb0953dbe003cU, 0x3d97b00f3dd3c56eU, 0x3e3ffe8f3e585c73U,
  0xbde13b76bd976f19U, 0xbeaaafccbcc836faU, 0x3d9273ddbc462bcbU, 0xbbedaeb23d3ecc85U,
  0xbe726dfe3e502a2eU, 0x3ea97e52bd49edd5U, 0x3c3bf3ab3e36f812U, 0xbf2473033e32e68aU,
  0x3e132d243dd596c5U, 0xbea0048dbc0506a9U, 0x3e1821bb3dca51b3U, 0x3ce33c533ea3142eU,
  0x3b36c947be1f4395U, 0xbe1322ccbe303f1fU, 0xbc02b278bd340ac6U, 0xbe98c97abf189ecdU,
  0xbde637c73e793efaU, 0x3e89ccb33d6ad6bdU, 0x3ef21cebbc1fdd72U, 0x3e5fdd2cbd96fc31U,
  0xbe42d73d3e3626d9U, 0x3da6df85be363507U, 0xbeb17913be9483d2U, 0xbdcb3443be4bee16U,
  0x3d8181cfbe30a33bU, 0xbe8da71dbe96b2c0U, 0x3e57e83c3edfee44U, 0xbe14882dbde625f7U,
  0xbd8e3c46be49b2d6U, 0xbe86af45be5f83b5U, 0x3d87d98fbce7c7b3U, 0xbda152643e152d49U,
  0x3c4948703dd00830U, 0xbe57c34fbd22e734U, 0x3e370610beac72dbU, 0xbdcd4a8e3e7a764fU,
  0x3e87a4d33ed5d857U, 0xbdadb5b5be09827aU, 0x3dd37808bd803365U, 0xbe7599aebe74cc1dU,
  0xbea56f4abe7fd03aU, 0x3c8cf4693df5a75eU, 0x3ee286ddbe0ebaefU, 0xbe3b0cbd3dbf7918U,
  0x3e86f8d2bce2930bU, 0x3ee9ae17bd4e6fdfU, 0x3e0ea0dcbdd5f9f6U, 0x3d990ee5bf099432U,
  0x3d75d9f33e43d2f5U, 0x3e9d658d3d4010fcU, 0xbea64ab0bd4bbad9U, 0xbd1fed8e3e38a96fU,
  0x3e24925abe32d3afU, 0xbd51d1c9be0864d7U, 0xbbd05e0cbeb77712U, 0x3e350c89bcdcf4b5U,
  0x3d8854893ebf39b7U, 0xbec8e8593e9afbfbU, 0x3cb735dcbed0d954U, 0xbcffe5efbe98229bU,
  0x38dea4d23dda95a0U, 0xbedf696d3ec240c2U, 0xbe613307be0191fdU, 0x3db5318b3d2fd4feU,
  0xbeb56f883dae3355U, 0xbe6683b6bef0052fU, 0x3eb230ee3e021d91U, 0x3eccf5bc3e195baaU,
  0x3e9bdb43be497ec5U, 0x3dbc135c3b927f1cU, 0x3d963babbc6bf1d1U, 0x3e2d23a83e2f3ea2U,
  0xbda323363e094086U, 0xbd118097be200a0cU, 0x3db078bbbe79f03bU, 0x3e7a9af7bbb0eb57U,
  0xbe860aa23d45f906U, 0x3d5be65f3d626602U, 0x3a40fcde3da31632U, 0x3e1abbf3be000501U,
  0xbeb9a896bea7f181U, 0xbe7eae513ddd194eU, 0x3ea1757d3e3c1566U, 0x3ef0f2873d57e095U,
  0xbdd49a123e9c0ccdU, 0x3d77077b3d4ec938U, 0x3e007c89be08957bU, 0xbdc4e4263e7bbb3aU,
  0x3e8e4e6e3d15bbfcU, 0xbd4b7dadbe60fb38U, 0x3d23edfc3e85e23aU, 0x3d480453bdf837b3U,
  0xbe2741e63cf06d5eU, 0xbeb9a043be349a39U, 0xbe6557723e3d3f23U, 0xbd8dd917bf19a8a6U,
  0xbf08e816be0ee69dU, 0xbd16dfc73ddd31ddU, 0x3e94700cbe05a363U, 0x3997fc8cbd7b1f1fU,
  0xbe7da77dbd4bdf71U, 0x3d945e9c3de95e57U, 0xbefeb848bd9afd64U, 0x3daacdbbbd8e1246U,
  0x3d24c3c83e8b0577U, 0x3e3148d9bd59cca6U, 0x3e3287c1bde3fe93U, 0xbf07ad843c377497U,
  0xbe4e89adbe3be46aU, 0xbe1a83ea3db9f916U, 0x3d18bc2b3e009146U, 0xbdae8d673e9d9014U,
  0x3a993e9cbdd28d50U, 0x3e0c6ae1bf426a7bU, 0xbad15a19bc128093U, 0xbdb36eb3bec9df77U,
  0x3ed68a2b3d3406f7U, 0x3de314abbeb8abf0U, 0x3e63249abe7f23f2U, 0x3e1701cb3d7dc586U,
  0xbe216227bdc3b0e6U, 0xbe9fad553e094e64U, 0x3de9d5d5be879a7fU, 0x3e7ffec9bd778eefU,
  0xbe9ef8d93dadeec0U, 0xbf1e2bf0be1881b0U, 0xbebcdb5bbc1c3ec6U, 0x3e99568a3bb6e222U,
  0xbe770650bcd88d8fU, 0xbe8b78b63e11e727U, 0x3c46ec74bc801828U, 0xbd2943f4be518d3aU,
  0xbbdc6bc53e98c5e8U, 0xbd0e5ad2bcdd0644U, 0x3e02df483e10163bU, 0xbee736913ead86ebU,
  0xbeb1e9543e193210U, 0xbe93b270bd711bc9U, 0xbe2297e3be8a19ccU, 0x3c58c293be71e8b1U,
  0xbe9562783d3c7ae5U, 0x3ebc06e23d2f0b1bU, 0xbe1b3dfe3d37a798U, 0xbdab0bf8bc9df419U,
  0x3da186f1bda0c5b6U, 0x3e8efb0dba2744feU, 0x3dfdaa6f3e80d178U, 0x3cb9a257bdba762fU,
  0xbe6b2e4c3e7fbdf4U, 0x3df6cbb3bdc91479U, 0x3f157a7b3e04fd7dU, 0x3e71222e3e3e62e8U,
  0xbe22e55dbd0d1344U, 0x3e17d72a3d378529U, 0x3eb5deedbdd7e7c3U, 0xbe1d63b0be330cf6U,
  0x3ee7b80fbc49438bU, 0x3dff7fbc3e098c18U, 0x3e11df513e595e4bU, 0xbc245a873e03a707U,
  0x3e5191443ddc674aU, 0x3d6d7f6dbe4ce0b5U, 0xbdd5cb543b042ee9U, 0xbe8372e03e699beeU,
  0x3ea55bb4be8d9b13U, 0x3e9b5263bdf629e2U, 0x3e96e0343dbdfad4U, 0xbe6d41bcbc5cf572U,
  0xbea8647dbdc084d5U, 0xbebabd933e26e526U, 0x3dbc5857bccb24f1U, 0xbe2ad9f5bdd1fefdU,
  0x3e35527c3e8fb37dU, 0x3e458fc1bda8fac4U, 0x3d9c86f53b80bcb4U, 0x3e28084e3ed913ecU,
  0x3e272d173d830be2U, 0x3d90f94f3d19dc5aU, 0xbc3eaa3b3d64e5ceU, 0x3e826730be5f0237U,
  0xbe2f2033bd94eb75U, 0xbe90d0b5be5ecbf9U, 0x3d275c0cbe1db522U, 0x3dfcc1453e53d010U,
  0xbdc902c8bd32f735U, 0xbcfb07383e43ede7U, 0xbdcae0163e21c7a3U, 0x3e18814ebe22af81U,
  0x3eea41843e17ad26U, 0x3df156953d4e0aa2U, 0x3cd60c9fbe976a15U, 0xbddcabaf3e0e888bU,
  0x3f0de7e23bb508e3U, 0xbd5be6d33db0feebU, 0xbe8f174cbca89060U, 0xbd8c5524be071c20U,
  0xbd1d1eacbd4e5160U, 0x3e45a9323e80c079U, 0x3e3e82dbbe1435e4U, 0xbd4eede33d9f1ee0U,
  0x3db95a9e3eb8c5b1U, 0x3df756efbe158710U, 0xbd342418bd84b3c3U, 0x3e13e0733d94d281U,
  0x3dbf22f4be0d78d4U, 0x3dd217d53dbb0e0dU, 0x3e2b9faabecf80bbU, 0xbebe80f7be747047U,
  0x3cbcb11b3de771aeU, 0xbdbc1f8c3e0cf1cdU, 0x3ebeb1d73c8fb115U, 0xbe620051bde84996U,
  0x3cf64d1f3eb2fe58U, 0xbdc73609bd578614U, 0x3e7506203e1b33c8U, 0x3ef4ef913c4349e1U,
  0x3e3b8e423ec9f765U, 0xbdcbbf95be032fb4U, 0x3e117acc3ef7be19U, 0xbdd303053e4e541bU,
  0xbd98e1cabe1ef159U, 0x3da7c57fbe5b78a0U, 0x3e9ca2c33e596a9fU, 0xbe0274173eafa13fU,
  0xbe272950bd48eca4U, 0xbe29464dbbac4788U, 0xbd408969be966eaaU, 0xbebf7b263e389f18U,
  0x3dd848f8bd10ef03U, 0x3e1ae9683dc263c4U, 0xbe939fbdbe8b360eU, 0xbe55a557bee1f027U,
  0xbe876edebe33f54fU, 0xbe29468d3e457aaeU, 0xbe5be7ce3ec50401U, 0x3e3ac033be8c4759U,
  0x3d021fa1be96cd48U, 0x3df6fc4cbe29e213U, 0x3e1969a6bd05ea79U, 0x3f1c3a98bdc20b63U,
  0x3e8348ba3d8606a8U, 0x3e3cac4f3d87380eU, 0xbdce2a213e22c5a2U, 0x3b71341dbe68746bU,
  0x3ea8d2dabdff3a56U, 0x3d7a4f353e0b7331U, 0xbc0e29c63e34e677U, 0xbdc3689a3d7dfd0fU,
  0x3df9d018be89a308U, 0xbeaa6c9c3dc89c00U, 0x3dcc3642beb9f0e6U, 0x3ccd02a3bc51a387U,
  0x3e59a6d73dcd7e5cU, 0x3d37dda53e3eee72U, 0xbdeac652bc08680cU, 0x3b9593483df024bdU,
  0x3dba1db43898ac75U, 0xbd8871f2be76109eU, 0xbe8ed3f23d11e1e2U, 0x3de42bd43e3ec068U,
  0x3eb952663e1d0373U, 0xbd506ccdbe7dd50bU, 0xbe2e87ecbd0c239dU, 0x3d4f50743e65ec4bU,
  0x3cc99c723e5c7d2eU, 0xbd4507523d0bb806U, 0xbe94aa983e37c592U, 0xbc7c8acd3e2f32c2U,
  0xbc49bb5b3dca49e4U, 0xbe6efe4f3e1714ccU, 0x3e0e41a4bc33f4baU, 0xbdc97264be6c8b43U,
  0x3e64d8f83eb6f534U, 0x3d689c053eca3b34U, 0x3dc502503e410344U, 0x3e388f113e53230aU,
  0x3e3da5ca3dd85474U, 0xbe8e0f8d3da39df0U, 0xbd0879023d25810fU, 0x3f05a070bd107351U,
  0xbd95c13cbd6c48d2U, 0xbd4b6f143ec6097cU, 0x3e151ff2be13ea02U, 0xbde206eb3dcb4dfaU,
  0x3c52c3ed3d807f7bU, 0x3e7155ff3dd3a2bdU, 0x3eb848e5bd92e009U, 0x3e957bcd3e07a6d8U,
  0xbe8622573c5f3be0U, 0xbeb100efbe14b9d9U, 0xbc53c1643d592a80U, 0xbe17325dbe864325U,
  0x3e068851be2b8b8cU, 0x3e4a8b14be790cadU, 0x3eb4dcd7bddee785U, 0x3e1e869dbd95a7daU,
  0x3d7fb84a3d604e02U, 0xbe866a01beb39e31U, 0xbdfa58c7bea068b2U, 0xbec7517d3e1b4057U,
  0xbe824baabea3882fU, 0xbe374d023dc98f2bU, 0x3e340a39bdf8d849U, 0xbe157b86bddc6f8aU,
  0xbc41e87cbbc0b840U, 0xbdb649b2be212012U, 0xbe0fbee4be6becd1U, 0xbe0af257be80a947U,
  0x3e0e23643d1f6553U, 0x3dd3b53fbe9ea8b0U, 0x3e837c1bbe3f826eU, 0x3d207d72be38de5dU,
  0x3ddfd89d3d1fd643U, 0xbebbd81b3e81aefeU, 0x3bdc1cc33e214727U, 0xbc0ba4c1bdfbfe9aU,
  0x3e78d126bc2f2996U, 0x3e776b113dfa0b60U, 0x3c41fd053d31006fU, 0xbd8adc6dbe098528U,
  0xbe376a4ebf0a4930U, 0xbed3f135be3d7b8cU, 0x3e2d28333e7b9fb3U, 0x3e9f35663e5d5ca4U,
  0x3e57abdc3da1a1eeU, 0xbe3bacff3e43cb3eU, 0x3dcb1af1be4ffb6eU, 0xbe951c2dbeb041eaU,
  0x3d41cf3dbb426a53U, 0x3e5fba843ebe108fU, 0x3e6ba06f3e8f040eU, 0xbd3a3a8dbc1cd6feU,
  0x3e7870a4be83a9baU, 0x3e112db23e8e1414U, 0x3dc3eb8cbdce1e1cU, 0xbe355ca13e4bfaa3U,
  0x3ea56f4b3df50f46U, 0xbb1a1bd93dbfd11eU, 0xbea76bdfbe8926caU, 0xbe134d513ca9f15fU,
  0xbe1c434ebdbc3090U, 0x3e070ac1bea105bdU, 0xbe86d69a3c437cc8U, 0x3da2f06c3e024eecU,
  0x3eca64f23d038b3eU, 0xbe3d29ff3c7318a2U, 0x3e23d3ef3e6f705dU, 0x3cc1aa22be2b0031U,
  0x3e11a5eebe8ebf0cU, 0xbd058467be8d62dbU, 0xbd8e48d5beb450d0U, 0xbe84f2de3e2a2e37U,
  0xbdf843ac3bb81d10U, 0xbd84eaee395f0101U, 0xbe932c6f3c773ef4U, 0xbe56691f3bea7b7cU,
  0xbecc2359be0e5da7U, 0x3edb09973eb585f4U, 0x3e3f68a33dc43912U, 0xbd319d273e30f263U,
  0xbedf21a8be84ffc5U, 0xbe20c9f53e7eff2bU, 0xbd54b8edbcacd0f4U, 0xbdc33b65bdf377d9U,
  0xbeb9f0dcbe72a005U, 0x3daf6ebc3ebeef24U, 0xbdae479b3d3a49fdU, 0x3e14e3c7bec97911U,
  0x3cd0b608bdd0e70eU, 0x3e254d043ed4677eU, 0xbddbf71c3e3cf4a4U, 0x3e3326f93e3b7069U,
  0xbe631e2b3cd229f2U, 0xbe8fe4863dc6e627U, 0xbe7241ff3db8f70eU, 0x3de8bf46be2bc2dbU,
  0xbe75d494be525310U, 0x3ddd32373d93fc29U, 0xbe4a75463e880758U, 0xbe140f9d3ce7846dU,
  0x3d88c52ebee6942bU, 0xbd8e8d0b3da0fa5cU, 0xbbe990333d0ae2d4U, 0x3d605b2b3d215b99U,
  0x3d15acebbed6676aU, 0xbe207ac8bdd84decU, 0xbddcac0a3df97754U, 0x3c75d300bd69af1cU,
  0xbe05e36bbb8d6c74U, 0xbed26874be24c5fdU, 0xbef6b35f3e2d9783U, 0xbe424496be45ed97U,
  0x3dd27e4dbd2b6b0eU, 0xbe7928fa3c13ec04U, 0x3e072cb9be1111a2U, 0xbe2cb2423c70a6f2U,
  0xbe2fa594be02e643U, 0xbed6a11a3e4eb365U, 0x3e81b8103d232659U, 0x3d6a5f34be1c5fbdU,
  0x3bba50ce3e63d481U, 0x3cb50422be7c45d6U, 0xbe8e02debdaeac02U, 0x3e728b313dd1cbc0U,
  0x3e36967a3eb18432U, 0x3e2ed5cc3dabf0e2U, 0xbdf8d5123dd88d2eU, 0xbeeec7473cf3095eU,
  0x3e90591d3c5bbefdU, 0x3dd64484bd4b09c7U, 0x3e3627eb3c96bca4U, 0xbe29c60e3eb91e85U,
  0xbe07ddcb3cf4a537U, 0x3c17d619bcf0594cU, 0xbdeb187dbb904d99U, 0xbd9b32f3be8905adU,
  0x3e5c24df3e48b968U, 0x3e58c0e83e21271aU, 0xbd84f33fbdaad0cbU, 0x3ef489273d82798bU,
  0x3f147cf93e338a8fU, 0x3ed1f0133e6b1687U, 0xbc7877c4be773036U, 0xbd3f7da63c626a7fU,
  0xbd8e33e03d40f70fU, 0x3d85f904bed805d8U, 0xbdf1ec443ed17fa8U, 0x3ea4d8fe3e8f26abU,
  0x3e1b224a3e8d7513U, 0xbe4e455abeb8d659U, 0xbe714d7bbec9af4bU, 0xbde456923ecbeb6aU,
  0x3e0f2b873e521f5eU, 0x3eea04303eaef2f0U, 0xbe7098783e96d974U, 0x3d7a0100be4111d9U,
  0x3da767aebd5bf8cfU, 0xbe78f5f1bdd6422dU, 0x3dfa1872be5748a3U, 0xbe3074bbbdb4e88dU,
  0xbd48c3fa3d094871U, 0x3cab0bac3bde5074U, 0xbea52ae9be2d6c42U, 0x3f1a6ac23d8d6b9eU,
  0xbd55493b3e62cfcfU, 0xbdea521f3e86838eU, 0x3c415b473d61164fU, 0xbd977d03bd937320U,
  0x3d6776523e933b8bU, 0x3e6fab393e02271fU, 0x3b684d47bd99b1e2U, 0xbe83b6523e80b4e4U,
  0xbbc30e48bdaf42cfU, 0x3e8e00893d7fd07fU, 0xbe33d4a9bdb4be07U, 0xbdd50f45bd1a273cU,
  0xbdde34ee3e853560U, 0x3da53a7d3dee798bU, 0x3ed29cef3f029d8bU, 0xbf18916f3e399b93U,
  0x3dd3edffbda35208U, 0x3e0efc0f3d7161e7U, 0xbdb460d23ccd7694U, 0xbe08b15bbec8e910U,
  0xbf108078be90ce2eU, 0xbd818c703e79b4eaU, 0xbe070529bebd6ba5U, 0xbe265681be5e9050U,
  0xbe78f7833eaff8e7U, 0xbdaca0353e4dc2fcU, 0x3d8df564be2a9296U, 0x3e832d163ddf793dU,
  0xbc456f96b87bd767U, 0xbeba15293e4f375cU, 0x3e07e57d3e91c2d4U, 0x3e868cb1be286b39U,
  0xbdde14ac3e84dee9U, 0xbd945fe33edb2c93U, 0x3e920f103ed8acf1U, 0x3dae99ebbe5f25c8U,
  0xbe9a669cbea73da1U, 0x3e35c6143ba88df6U, 0xbeb3c356bd675afcU, 0xbbddc74c3e213d94U,
  0x3ec6c490bea80d38U, 0x3e1883503e636eebU, 0x3f0174133ecce530U, 0x3d668d0d3e03f412U,
  0xbe5a3b793d9ae724U, 0xbeea5719bd8489ccU, 0xbdc4028cbed1c5d9U, 0x3d9086ee3d18171eU,
  0x3d38519abda0f2dbU, 0xbe2fd6cd3da1a063U, 0xbc3fd6e5be8b3b2fU, 0x3e169224be9a05a1U,
  0x3c2d02503ea3fe0cU, 0x3d08b60fbe18feb5U, 0x3d7d30ac3e5d520dU, 0x3e6dc40ebac5bbeaU,
  0xbe0ce0f8bdba2006U, 0xbdd12c7a3eaa0571U, 0xbe44e74c3b35754cU, 0x3e16ac11bdc4aa3cU,
  0xbecf6ac33e959080U, 0x3ea0118bbcc1911cU, 0x3e53cb7e3dfdbb51U, 0xbe93fcd9bed86a3aU,
  0xbe36cd6b3d696905U, 0x3e88649fbd15590bU, 0xbdbd2c823e335464U, 0x3d268021bd294a37U,
  0xbd6136763d3f7053U, 0x3bab02d83d1e0b6cU, 0x3a4621983e4fee3dU, 0x3e35ab60be5c824cU,
  0x3df0538f3debcfb0U, 0xbe27880cbe2d10f3U, 0xbd177acfbe251b19U, 0x3d63c7fe3d9315b2U,
  0xbdf651d6bea17baaU, 0x3e3e16c7be8886dfU, 0xbe1a2f3b3ea6268eU, 0x3e2816e1bdde2b76U,
  0xbe942f91bed2881dU, 0xbda96f01be98cc5eU, 0xbed4f1ee3e9bebf7U, 0xbeb049573e095cf3U,
  0x3cc107e43e1e4c33U, 0xbd8eb0ce3e1e6b29U, 0xbe971c833e95ef4dU, 0xbf0a72e3bd917905U,
  0x3e3779d03e4b39b5U, 0x3f1da9903f4185a8U, 0xbf18ad853f01fc60U, 0xbe3bf3e33d63923fU,
  0xbec404833d67fe1cU, 0xbda4f4863d8514e5U, 0x3eae849dbee07f5eU, 0x3e1c46cabe417062U,
  0xbdbe303f3e69a81eU, 0xbe168826bdcfc846U, 0xbe9b70a7bf030bc0U, 0x3e820555bdd26332U,
  0x3e93199ebe32e650U, 0xbda207d53dabc5c4U, 0x3de83a183f025fd9U, 0xbe8f39b0bef834aeU,
  0x3dfa35b9bec69c99U, 0xbf170070bcde5d68U, 0xbe947a58bebf76fdU, 0xbd98a6c63ea0f5c3U,
  0xbdff36fcbe6bacb1U, 0xbeae32ddbe8829e0U, 0xbe269dac3e64b344U, 0xbe5e2d40be5c6c5dU,
  0xbe568b8cbeba8776U, 0xbd848634bed8638aU, 0xb9352afcbdf2a5c3U, 0x3e664aa3be862801U,
  0xbce55ab4be8248b5U, 0xbdafa62d3dc3923cU, 0x3e4819423edff11fU, 0x3c4a62cf3dfd19ebU,
  0x3e1114773d22ff52U, 0x3d0c31f0bd9aece5U, 0x3d8bffc53dcd1a44U, 0x3db77b113eaac01aU,
  0xbb17d6bc3c77a4c5U, 0xbec447eebdb0fe0eU, 0x3e367114be436d85U, 0xbd608240bf007c2dU,
  0x3e7245d13eae9225U, 0xbd94d8e33ea15449U, 0x3ec0b1403e42d908U, 0x3e3954d63e9d1734U,
  0x3ec22a9ebe286d2fU, 0xbe5ca84e3e1b1b89U, 0x3e281f9abe5dd77dU, 0x3ea6fc17bcf48ebbU,
  0xbe733a8ebe333f2dU, 0xbda60fcdbe86956bU, 0xbdedf0103e1b676dU, 0x3e43a3ee3ecf2d1fU,
  0xbeb6e7113ea325adU, 0xbde8eb4bbdc81d86U, 0xbe87b6dfbdf86235U, 0xbcbfeb91be22b597U,
  0x3d8e521dbe5ce54aU, 0xbe4d97d8bb2357ffU, 0xbe1ad3b33e369a97U, 0xbc247e8e3d85c31fU,
  0xbd8995a9bc743795U, 0xbe2ab614bc68f5f1U, 0xbe7ae9053ec0bbffU, 0xbe05f0cb3d82a6faU,
  0x3ec07ae2bd12a0a5U, 0xbe0766f23e182f1cU, 0xbea13eafbd23884aU, 0xbda9df483d94530fU,
  0x3d8aebc93d433a75U, 0xba9b62fa3d43f796U, 0x3d3db4263ed89563U, 0x3e1e76323ea72653U,
  0x3e8a50213d8a758eU, 0xbe4b6e56be463eb4U, 0x3e3e5f9cbd23b83fU, 0xbef10409bd5598f0U,
  0xbe4e47853e244cdbU, 0x3ecc7e4bbbc2c033U, 0x3e47356cbe831c9aU, 0x3e133d8fbe1c6b31U,
  0xbdc3af333e7c0083U, 0xbe34ff903e76632eU, 0xbdf76ccd3c1b8b87U, 0x3e855517be90e74eU,
  0x3e531b5a3db6baeaU, 0xbd916c3d3ea6276dU, 0xbe139ad03d59fbf2U, 0xbdd379243e83c689U,
  0xbcaaf504bea22b5eU, 0xbc7a539a3dd6396cU, 0x3dc34fad3e8905fcU, 0xbe0bd7153e6fbfbcU,
  0x3ec94e9bbd301b93U, 0xbba80d183d73c833U, 0x3d9edf0a3e34f920U, 0xbe30a1983e0e3b0fU,
  0x3ea7bb71bd35d899U, 0x3ca8a6873ec080cbU, 0xbe0ac45bbe8f1569U, 0x3d21c0c53dd6aa00U,
  0xbea9a83cbe26f6a2U, 0x3ebffbb23e39a8c3U, 0xbe8f02d5bd76778dU, 0x3e2645cfbd92284eU,
  0x3e36af113ea8f418U, 0xbd17b458bda3f6a1U, 0xbcdac825be2c604fU, 0xbd1faeed3dc04f59U,
  0xbe34c972bee19f1cU, 0x3e976431bda63b5eU, 0x3dd7ec583d14204cU, 0x3f176b3fbd5ba68cU,
  0x3d90c757bdc866a4U, 0xbe29bc0c3ee908c1U, 0x3d0cf196bd203712U, 0xbe7499473e114d8dU,
  0x3e4293c9be9035d3U, 0xbe0245c33ddcec17U, 0xbe85ef563e3d615eU, 0x3e20629abdb3c84eU,
  0x3e37370e3dc56d5aU, 0x3c4328f13d3457efU, 0xbe95dbb33cb1b0afU, 0x3d245b863e7e0c7bU,
  0xbec7ad07bdc41a1bU, 0xbd558bdc3e5f5f7eU, 0x3dab1cde3cbb46d5U, 0x3e7340bdbe1e6d84U,
  0xbd936056bd9acda1U, 0xbdb6bb3f3ebd844dU, 0xbe60581fbe179141U, 0x3ea760cbbcd3c1d8U,
  0xbbd3a0623d69547aU, 0xbe3188033de194beU, 0x3e2bcaadbe09ed1dU, 0x3cb198c2bdb45285U,
  0xbe2eb8b23c4a5e7fU, 0xbe5d6c16be29b641U, 0x3e0ea947becc396aU, 0xbe4aeaa5bdd40871U,
  0xbd093c193d37837cU, 0xbdb7c1b83cf1ca0bU, 0x3e872105bd0cf2f2U, 0xbe42947bbddb307cU,
  0xbda297a93e056203U, 0xbe6ac9783e2ebd86U, 0xbd46442c3e235dbeU, 0xbcba3e9bbd375380U,
  0xbd91c0fc3d084020U, 0x3e5704283e327ac4U, 0xbb60c98f3e2daf0fU, 0xbd87857cbd977439U,
  0xbe125b28bd1c7737U, 0xbb8c93643c2dd7d9U, 0xbe8527ef3e811d88U, 0x3d7a2cfebd1041f3U,
  0x3c7fadcbbe8212b1U, 0xbe5e16e73dd7ff08U, 0xbdcc05abbe51769dU, 0x3eb813363de041b7U,
  0xbdca369ebe27330eU, 0x3b83b583bd252020U, 0x3c95ae15bed54c28U, 0x3e940a5c3ec95b5aU,
  0xbda91a4a3eece0f0U, 0xbeb21a5fbe7afef8U, 0x3db7d6d9be27d710U, 0x3ccd651bbc720119U,
  0xbd57733a3d09c238U, 0xbcb2a06a3df331c3U, 0x3eb43c2abed519d8U, 0xbe9b0f58bd92f90eU,
  0x3e2c37d23dcfa69fU, 0xbd1feb22bdaff0c1U, 0x3e259baa3e3c639eU, 0x3e1b03063ddca743U,
  0x3dd1ee3abd120925U, 0x3ddeb76abc39857cU, 0x3c9a8fe5bd87acacU, 0x3da30955be1bfe51U,
  0x3e920d83bd831730U, 0x3def71593d9b1123U, 0x3deac3d3be8ea0deU, 0xbe2fc045bdc9498cU,
  0xbe2d4156bdab9a07U, 0x3e29ea8a3cb103a8U, 0x3e2aab6abcffed76U, 0x3e3380693de0949cU,
  0xbe596dd33e5b267fU, 0x3c5391c83e1db51fU, 0x3d09d3a3bcd0e07aU, 0xbeb4c339be881444U,
  0x3d8ed014bde2b8ddU, 0x3ca64a24be51a600U, 0x3d43ef4fbdc34be7U, 0x3e3d08693cd1753bU,
  0x3db900803e86c6ddU, 0xbe46f59f3e1084a8U, 0x3e0248ee3edae173U, 0x3d2e1ff3bc960f22U,
  0x3ed4c6d83ebd4810U, 0x3e4585c8be1d2720U, 0x3973586a3c54bedeU, 0xbdcb6cbb3d9c79f5U,
  0xbda3efdabd0512a7U, 0xbd6fe5173e196ac9U, 0xbdbfda723e9373f7U, 0x3b048ddd3d09fc14U,
  0xbed96dc5be9d0ee8U, 0xbe87d7b93e4d773fU, 0x3e570e9abd321bd3U, 0xbe676a15bd8b19dcU,
  0x3d766e353ca8a9e4U, 0xbdf8be263e18d755U, 0xbd420ab6be3d5339U, 0xbe3c170bbe332823U,
  0xbe115eebbd31d1b4U, 0x3ea1a2943d4d5d8bU, 0xbd7194903ebeb437U, 0x3e190184bed0f60cU,
  0xbe6e6781be0e11aaU, 0x3bfa0e283e38482cU, 0xbda9075f3e8ea845U, 0xbc859f85bd62b1fdU,
  0x3d41e870bb340d4eU, 0x3da3ac083debf989U, 0xbd92f4d13ccf0fd6U, 0xbd1c478b3d7e32b1U,
  0xbe3a47363cd9b4bbU, 0xbe844831bea2b927U, 0x3e320adfbd897ce1U, 0x3dcd51613db5829fU,
  0xbd18c9bfbdae3b50U, 0x3e302c28bdd9bf97U, 0xbe2725903dc31101U, 0x3e8961693e109d7dU,
  0x3cacb06fbda54647U, 0xbda15fb63bba3174U, 0xbd7416b63dc60dbbU, 0xbe27abe43b8d0068U,
  0x3e26effc3d65f387U, 0xbdcb66a83e52bc6aU, 0x3d25c29a3da8efbbU, 0x3df7d9493dd9f9d9U,
  0xbe0bfb5ebdfa6054U, 0x3e0f536a3d77fbf6U, 0x3de178c13ca89801U, 0xbead0dbebdf52e42U,
  0x3ea806ab3c6d29d1U, 0xbd72c9e43d4365beU, 0xbe0a36483d446ac4U, 0x3d32ef8f3c12e747U,
  0xbdd74d20be04eee4U, 0x3c274b253e1bb2c7U, 0x3de770543e782083U, 0xbc3b3289395a52d7U,
  0x3dd58d77be3f3290U, 0x3d41fa993d087e5cU, 0x3e7b928abd9d5cf0U, 0xbd704d163c96ce0dU,
  0x3d2c066a3d85da76U, 0x3ea6243c3e5ca302U, 0xbe5d91f6be1d6661U, 0x3e63e2703cbbe8aeU,
  0x3d0c6ec2bd13bbb0U, 0xbd17440d3e4c3c96U, 0xbd057f193d6a94fcU, 0xbd2e2b23be00a76dU,
  0x3eb92a873e3711e0U, 0xbe0b4e893e07c169U, 0x3e25f8783e07747aU, 0xbdc28d773e7d9acdU,
  0x3e005182be2a99ecU, 0xbe116e26bcfba9d5U, 0xbe0c52aa3c8c06c6U, 0x3e18fa8c3e14a78dU,
  0xbe097f4fbd8152d7U, 0x3e5db73cbe733391U, 0xbb574c00bdae85bdU, 0xbe3409bc3da3199eU,
  0x3f3aa92f3c5729edU, 0x3d6435853e80bb73U, 0x3bc2808a3d4e4cc3U, 0x3daecfa63bce2ee4U,
  0xbc6a2c08bcb0321aU, 0x3d6dc648bed090a2U, 0x3c5f748b3de336baU, 0xbd6de328bccfd82fU,
  0x3dfd2a0cbe229e29U, 0x3de5cc903d177a1dU, 0x3bfc86b83cbf0d60U, 0x3ca38619bde41155U,
  0xbd18f2c93d8b5699U, 0x3d6825923de4619bU, 0xbe180ee5bc6b6398U, 0xbd0ed4e7bd8b94c8U,
  0xbe8285d53d81d799U, 0x3c88651dbe6ca7b4U, 0xbda226783e15a28bU, 0x3de89c73bc7d7b18U,
  0x3d9df2f03da1b368U, 0xbe2746b6bda5f351U, 0xbd787e71bdf16c7dU, 0xbe80e05ebd4d5275U,
  0xbd5172fd3eb009fbU, 0x3df774983ca922c1U, 0x3df62245bd63ecc5U, 0xbdad83ebbc80a630U,
  0xbd4bb9b7bd72fb52U, 0xbe54e151bd9a74f9U, 0x3e94821a3db5dd34U, 0x3d606ec3bc888199U,
  0xbdcb23143e0e587cU, 0x3e4a7b07bdae62baU, 0x3ebfabbf3d0c5098U, 0xbd59fb9abdd518cbU,
  0xbd86c4553e256b63U, 0x3e12b2b43ebcf66cU, 0x3e1cebbb3d063cbbU, 0xbe16c860beaeb4d2U,
  0x3d89dafd3d848910U, 0xbdf6d990bcb8135aU, 0xbc4a95383b8de0f8U, 0x3d316f34bcc55a39U,
  0xbc478791be7d2d04U, 0x3e046a5fbd4555e3U, 0x3d5fe2983caabd74U, 0xbdc42836be66f12dU,
  0xbd95fae2be3ca752U, 0xbcb30bc1bd54d9e4U, 0x3e0d4c833e61bae0U, 0xbe29d9d4bdab4866U,
  0xbe3c4d6a3ea4cb84U, 0x3e402d09be871495U, 0xbcdf47803e0b0c14U, 0x3d6f7eaf3d8991f6U,
  0xbdb087753eaf8d3fU, 0xbe10e3b4bdca9c2cU, 0x3edfb8bd3d25226bU, 0xbc9f8a9bbde3c650U,
  0xbdf76f92be270a9aU, 0xbdad19ae3e3ce9e8U, 0x3cde2b383a8e6f2aU, 0x3d965bcf3edaad17U,
  0xbc91d33cbe438e61U, 0xbd6deeb1be1637cbU, 0x3dc4df653d6bfb3dU, 0x3da15721bd1b4850U,
  0x3debce17be0dace1U, 0xbd42c4b53df99c21U, 0x3c400735bcecbcefU, 0x3ccbe9973e153f5cU,
  0x3d81d3163ea2a8b9U, 0x3e3ecdb03ea2d58bU, 0x3e5ddce7bccff8e7U, 0x3db3b8cebe8e0b8eU,
  0xbdfe64ef3e350eabU, 0xbe5a4583be395c31U, 0xbc200df13d11dd7eU, 0xbe52160ebe889525U,
  0x3d925c6cbd390bc5U, 0xbe190d54bdb11492U, 0x3e286e263e0a9c2dU, 0xbe0f9a803e9d3cb4U,
  0x3e1cb8413e815297U, 0xbc5ac914be01b630U, 0x3da6a0483e05c779U, 0x3e9980ee3dbadd5bU,
  0x3d99c449bdbb2f3fU, 0xbdd0b4cfbe81a976U, 0x3cc751aabde6c6a1U, 0x3d32e09b3e8874d0U,
  0x3da39bd33d785d6aU, 0xbe580f86bdbdd67dU, 0x3bd99d4abdc6dd94U, 0xbdb584bdbd83c158U,
  0x3cc327d53dc72cd5U, 0xbc6e8c91bc2f55dfU, 0x3dc3699f3d441d66U, 0x3ecb212ebdbf93e9U,
  0xbd9af8efbda1dc16U, 0x3c3748613e40f2c8U, 0x3e3bb237be1ff4c8U, 0xbd6325bd3d5fc4d3U,
  0xbe7c9304be8f0233U, 0xbe871673be7952cfU, 0xbe3a56713d0ae7eeU, 0x3c9fe87e3dfc65fbU,
  0x3da966d23e9b7193U, 0x3c9e35823e5f7c39U, 0xbe3f00bdbe5571e5U, 0xbe269ae83e459478U,
  0xbda10c573e95c577U, 0x3d3011d13e3aa568U, 0xbccabd05be39d233U, 0x3d90a0a4be61d916U,
  0x3e2f6b69bd65c1ecU, 0x3e83dec4be2f4243U, 0xbdd611fcbc13d7daU, 0xbd62a5a23c173ef0U,
  0xbd725f8f3d9e6db4U, 0x3dcc4e883e75e2b1U, 0x3d69b4893e23df3bU, 0x3da53e53bc82c199U,
  0x3e55ef533dd03493U, 0x3e4c985cbd37c6ebU, 0xbe093276bce4c93fU, 0x3e383326be874b02U,
  0x3e05f00c3cc431fbU, 0xbd9e05b0bcbcfdc6U, 0x3d391d43bcbb2f8fU, 0x3eb0d299be3228bfU,
  0x3e93ee693e4b7231U, 0xbd91a1643e2e7345U, 0x3d3427b5be8efad0U, 0x3ddb8a5d3e33a052U,
  0xbddbf8813a72eabaU, 0xbe8defc6be3d4f11U, 0x3e012647becdc549U, 0xbe44f842bd0cd8c0U,
  0x3e40671b3e1fb32aU, 0xbe3a29f13b99b6d0U, 0xbd7908653d535f81U, 0xbd6d65d33e7451f6U,
  0x3e3a0e7b3e9bda8eU, 0x3c6a96cb3cb38873U, 0xbe3105d03d4b5abdU, 0xbdfc3917bdfca5d1U,
  0x3e26a68e3d6e6e4aU, 0xbe441b273eb27e65U, 0xbd61a2d0bd429bd8U, 0x3e72bb0e3e0d3c71U,
  0x3d8191c3be8afba4U, 0xbe1a980cbda37b1eU, 0xbe8fc7f73d0857bdU, 0x3d80d2703d3a622bU,
  0xbe2e14d83c36ddb1U, 0x3de80e8f3d5b9bc1U, 0xbc3fabb2bd5e37a1U, 0x3e025e9bbe437b35U,
  0x3dfcd2f53d6c883fU, 0x3e683321be3747efU, 0xbd9053a5bdaf33e0U, 0x3e1b88cf3bf7e8d6U,
  0xbe17d1bebd88e316U, 0xbb2c1ccd3d7e2e61U, 0xbe2b2975bda79fbdU, 0x3d0a58643d6a8743U,
  0xbd06b69d3d36ecb1U, 0x3daa82b5bd9abbc0U, 0x3db2f2533db2d2aaU, 0x3e25648fbec6cbe8U,
  0xbd8bbc743e1346afU, 0x3e86f988bd9a3545U, 0x3cc518913d22aa75U, 0x3e18e8993ec79292U,
  0xbe367fcdbdb9d62aU, 0xbeb760f1be465dd3U, 0xbdef80a8bd66eb5aU, 0xbde637993ddf455fU,
  0xbe0ac8e9bc9b7610U, 0xbd4f4ba53da8189eU, 0xbd97f51abc969848U, 0xbe68f1363daee798U,
  0xbe5eef19bba98627U, 0x3ce615363e18fc95U, 0xbe2e9ffbbe6b66e5U, 0x3dfa2f2ebe6fa877U,
  0x3e3156133f015fecU, 0xbdc584d73d9a6955U, 0xbca52404bd3b8e1eU, 0x3e3d9ae6be5663c2U,
  0x3d471881be2019f0U, 0xbc16b5fe3ebf0fe8U, 0xbe62389f3d3fc624U, 0x3e8a84c83e4a3b8aU,
  0x3e8fbf3dbd7c1fc3U, 0xbe44c8953dce2319U, 0x3dba14b5bd4b0450U, 0x3d3dc452be3ddaaeU,
  0x3c5cd1753d228869U, 0xbe15cf1abd88e42eU, 0xbd5025fa3e948861U, 0x3e80bc113d1a9543U,
  0x3d11b1933dc35a3eU, 0x3d8c5afa3e1150d2U, 0x3e13d4b2bde7d585U, 0xbe505df43debcd6cU,
  0x3d9aa2bb3db5511aU, 0x3dc367803d28377aU, 0x3d82302ebcb59300U, 0xbd90a12abe75a8c9U,
  0xbdc050ea3e4114cfU, 0x3e1992113d4aa28dU, 0xbe5615343d5b537cU, 0x3d2dffacbce4c5c0U,
  0x3bb0e0f6be703c95U, 0x3ddb0410bdc6a56aU, 0xbe6e8af2bc90c153U, 0x3c0e65fb3e43635eU,
  0x3d00d3023e4c767aU, 0xbdbc91e5bc10af17U, 0x3e8ff1e7be245da9U, 0xbe87a7debe329c8aU,
  0xbd4b514ebe81b124U, 0xbe94e1b73e42a84dU, 0x3ddd80b83da8a6b2U, 0xbde59ebabd430b21U,
  0x3d9c21da3ea86ed6U, 0x3daaeeaa3cd1b501U, 0x3e5165efbe41535dU, 0xbd61ed11bd94672cU,
  0x3df7ed28be06351bU, 0x3db6b605bbb6c758U, 0x3e0229493e54eea3U, 0x3bd8651e3c6a1adfU,
  0x3c637344bc926180U, 0x3da0d1c93e1367bfU, 0xbe11bd623e73bd34U, 0xbcc5dad0bdc54675U,
  0xbe0cf861bd047914U, 0x3e3c741dbd367358U, 0x3ded189cbe94980eU, 0xbe357c6b3d7e772dU,
  0x3e80a8423d403b61U, 0x3dc77dabbd5909f6U, 0x3e32b3723cd8c97eU, 0x3de318d8be13d56fU,
  0x3cbb8c52be49d8c3U, 0x3eb529613d883575U, 0x3e90aba23e58dd41U, 0xbeb6e00cbcff1280U,
  0x3aa683493d8c7e5cU, 0x3e0d454f3df2f2faU, 0x3e17e8d43e8077cdU, 0xbe3710e4bdcae52eU,
  0x3d27d94e3d00a601U, 0x3ea969633e8aa4e7U, 0xbd49682b3e1abaffU, 0xbd098cf4bc9053b6U,
  0xbd5af03ebbd6ff0fU, 0xbe5bc92dbdd1e85aU, 0x3e92588fbe1321b7U, 0xbe345fb33d35cd1fU,
  0x3e31e8aa3ce8f9a5U, 0x3de8aacbbd9262e8U, 0x3d8c8e90bcbd8bc0U, 0xbdca3d85be342eecU,
  0xbe7c4ffc3c563268U, 0xbbc09b063dbde154U, 0x3d281e5c3cb39fe5U, 0x3cdc1bebbe64caceU,
  0x3e8923183d13a0d2U, 0xbcbea8e2be01d05fU, 0xbdb55effbdd04ca7U, 0xbd669799be527530U,
  0xba9eeddabe241431U, 0xbca7362e3d509755U, 0xbcbe4f25bdd3dbd7U, 0x3de1ba073d125f93U,
  0xbe1fd1933da62ab2U, 0xbd8c42b23e3e1e46U, 0xbaadf04e3cc57fdfU, 0x3d67f232be3be4b2U,
  0xbcc4f03c3d075851U, 0x3b4d9c87baffb230U, 0x3d7385263e8d506bU, 0x3e359aa73e223883U,
  0x3da836ed3da946ddU, 0x3df063953d9ae0d5U, 0xbd5670283dc6194cU, 0xbe5127b4bd8fd25fU,
  0x3e698a88bd8a5489U, 0x3cf23b9cbd14ee57U, 0xbda72c2d3ee62a13U, 0xbcf27e3dbdb1ea42U,
  0xbd25c3893ddaeec6U, 0x3e2bf60bbe0dec3dU, 0xbd05d660be127d41U, 0xbe4ea6e0bdb77346U,
  0xbc0cb6c63c15e30aU, 0x3e36fd4a3e3964b4U, 0x3cfae14bbe51f019U, 0x3da476ff3eeacd1eU,
  0xbcbd3913bbcca4e8U, 0xbcf273dbbde81e74U, 0x3e023b97bd83da9eU, 0x3c99f6ff3f02978fU,
  0xbb46e5f6bdd78f69U, 0xbe13ca44bd597379U, 0x3c1bffa33db28fd3U, 0x3e7337b5be906b97U,
  0xbd60f9dbbe6cf733U, 0xbcd508853f1d0e9eU, 0xbdd98aa13cf2e18eU, 0xbdac9de7bbdcd5b7U,
  0x3dde97d73cbc652dU, 0x3d6ff254be99f14dU, 0xbd4d31263e8892f0U, 0xbd644a143dc35937U,
  0xbc948bc8be09d22dU, 0x3e012f233d8707f3U, 0x3dca1bd63d3e67e9U, 0x3c3ad8eebd299eeeU,
  0x3c902622be80f231U, 0xbde6e1b3bc4561ceU, 0xbec947083e586b16U, 0x3e4e0adabd96156cU,
  0xbdafd02b3d2c66a9U, 0xbea39e43be8e104cU, 0x3eac8b94bd8371a7U, 0xbdebf4bebe2851dcU,
  0x3da019c93ef984d5U, 0xbe864efd3e62e7bbU, 0x3cc96ee9bdd20001U, 0xbdb7d8adbdc7c00fU,
  0x3e578ae3be29b19cU, 0x3dadca56bec9cbd9U, 0xbdbd5da43d0414e6U, 0x3b4e85fe3d98fa8dU,
  0xbd8cc94dbdc966bcU, 0x3e208c09be0cbfd8U, 0xbdc001bf3da264d6U, 0xbeabdaa63e0d06ceU,
  0x3e020161be401281U, 0xbd150e7b3e3240d5U, 0x3ecf6392bbdcf509U, 0x3e88250fbd589623U,
  0xbe648b95bdc867e9U, 0xbcd978e7be8ea09fU, 0x3d2a7ae03e802853U, 0xbeb71e303e0a5ce0U,
  0xbe3221a63e374a2bU, 0x3e13f4dfbe357d5aU, 0x3e20c0703e5c8bfbU, 0x3db4ff64bddb1181U,
  0xbd4ed78f3dce64b6U, 0x3e643a2b3d5f623fU, 0x3de0da483dbc75f7U, 0xbe83ab773dbacd2dU,
  0xbe34a187bdcc1227U, 0x3e4c2c1cbea0d786U, 0x3e5515b8bebf776dU, 0x3d9e82b93e2db825U,
  0xbc88ecabbe32b80eU, 0xbdb2e9a7be2e3d33U, 0x3dbd169dbe2a9b44U, 0x3c319601bd9700f4U,
  0xbe45f3693e191502U, 0xbdd857cc3e342695U, 0x3c9bc9adbddf18c6U, 0xbd0e10f03e28ed30U,
  0x3dffdd763da7be52U, 0xbda7eaf8bd898cbaU, 0x3e0566cebe70215bU, 0x3ebee9083d21ad61U,
  0x3c61570c3e323b30U, 0x3ceef0e6bda780cdU, 0xbe34954a3de21702U, 0xbe2cc983bd2f8384U,
  0x3e86d7adbe01e1cbU, 0x3c868f573d160cedU, 0xbe3f78423d366894U, 0x3e18de0c3e1ab7baU,
  0x3ec806d1bcfa1d49U, 0x3e9082773e1df556U, 0x3da414293e62f8a1U, 0xbe19873f3d964fddU,
  0x3e9ef1a7be6bb2d5U, 0xbed47c7ebdb8f1aeU, 0xbd2dc6c93d9f628eU, 0xbea687aa3d83fbdcU,
  0x3bd03119be5fde3aU, 0x3dfba4343e2ee006U, 0x3e95d088bdc2b4fdU, 0x3e05480a3e622e4bU,
  0x3d971451bbd4fc0eU, 0xbdd27c7c3de195b9U, 0x3dd7632d3bef0163U, 0x3daddb1c3ec8a242U,
  0x3e6ac11fbbb671c7U, 0xbee0fb45bd9cfb4fU, 0xbe1a6dc43e1acc2fU, 0x3dd6ed16be4b3d3fU,
  0xbe2f52f53e8888eeU, 0x3dd05b583d10b1c6U, 0x3e19d6903d0e696bU, 0x3d4d25b23ded0240U,
  0x3e4178abbe178888U, 0x3e95e7be3e189087U, 0x3d958cc8bd4b0046U, 0x3c9cbf383dccbd2cU,
  0xbd340ba43ec3feb4U, 0xbd03d20b3b844d74U, 0xbd099de3bcd05eb8U, 0xbd755ac33dc79be7U,
  0xbe91b7003d29a347U, 0xba26e8393d906cf8U, 0xbd710b3cbe86d6a2U, 0xbdc1b88d3e1fb760U,
  0x3ea229c53b99fe97U, 0x3e07152cbc73bbfdU, 0x3dbce8c2bc423716U, 0xbcd182073e097521U,
  0x3d3ac8333cf9088bU, 0x3e0a26df3d8ba62eU, 0xbe67facdbd3292c1U, 0xb9a5ca7cbe6ba54fU,
  0xbdfe824c3df4d896U, 0xbd41894dbdf1149fU, 0x3e689a843d51f3ddU, 0x3edc97333bc66b4fU,
  0xbb5c95aa3e370738U, 0xbcb11afc3d6cf0bfU, 0x3d0f836f3e80b64cU, 0x3d1f1e933d70fe1eU,
  0xbd38cb99387dd887U, 0x3e3e7ed13e18bd27U, 0x3e44ed99be2d5f4aU, 0xbcdfe635be2bb39dU,
  0x3dafb7193e8c0008U, 0x3e1bff333dc45e1cU, 0xbd34b15abd97a894U, 0xbe16b48fbca056afU,
  0x3de0faf93e896b8eU, 0x3d6540b33e9d4171U, 0x3e143382bdec779fU, 0x3e03f6eabdf08e8aU,
  0xbe8137293d138cebU, 0xbe90b6253e39684fU, 0xbe815d543d800557U, 0x3df0a1c13c9c4a3dU,
  0xbcfca344bd0e4941U, 0xbd711ebd3ea2fcecU, 0xbcdb6fae3de4d9e2U, 0x3e14a253bddbf116U,
  0xbe1e4bdf3e27793fU, 0x3e5b2a193e9bafd3U, 0xbe1437b13e4c097fU, 0x3d7691993bafd5c5U,
  0xbe8a0ffebd6abfbfU, 0x3eae3340bd8c05baU, 0x3cdc3ceabe667497U, 0xbdad7d113d8f1696U,
  0xbe3bbebabda2b9e5U, 0xbd8b8c40be6fb186U, 0xbc9acd813cb08ccaU, 0x3e1cfc67bdc7a0fdU,
  0xbe76bb1d3cd17da4U, 0xbcf3903d3e62c781U, 0xbe167e563e97e92bU, 0xbe0a79a7bd6cb262U,
  0x3de7f07fbc6c215fU, 0xbe810f503e496b0cU, 0xbe8986d8be165d50U, 0xbec61e783ce1ad16U,
  0x3d9c9c74bde701c0U, 0x3e8366f0bde79f73U, 0xbcc0481e3eab587aU, 0x3d863b76be040f54U,
  0x3ea7c473bdcdcd2eU, 0x3c5289e83db6135bU, 0x3cd7d3523cfcad82U, 0xbe4268aa3d8e3985U,
  0xbea55eb2bdc93749U, 0xbdbdc90d3dfc156cU, 0x3e287aa93c5316a2U, 0x3e19df06bd778a03U,
  0x3cbe3e7e3e65bac8U, 0xbded593bbe879531U, 0xbb8752a6be39035eU, 0x3e0811e43cebc97aU,
  0x3bf68179be89a85eU, 0xbdda9f283cb5d7fcU, 0x3e549e41be84e162U, 0x399a6d683d909cf8U,
  0x3d65ee0abd497808U, 0x3d430d1bbd491174U, 0xbe66a1863d20c453U, 0xbef9b8cb3e553010U,
  0x3e91b0423e0ed34aU, 0x3e534accbd0cdc03U, 0xbd041ed8be94ff9dU, 0xbbcc9480bdf6eb5cU,
  0xbda796143e06109fU, 0x3edcf00cbd4e936eU, 0xbd9b5d95bdfbb236U, 0x3d1c846e3c3c4ff0U,
  0x3d2fe7913e6e4e4aU, 0x3d355d5e3deb9099U, 0x3dfa75e2bde813d5U, 0xbd8471e6bd847b21U,
  0x3d8eae27becb0d06U, 0xbe583a3d3e14c169U, 0x3e2be50dbdf46eb2U, 0xbdb8278ebde8fca0U,
  0xbe011b9f3d2b29f0U, 0x3e6a3bbabe0902acU, 0xbe8c1b4b3dddc91aU, 0x3c7dee0cbb1aa091U,
  0x3dd9a2523d907c02U, 0xbd1cce3f3ca96790U, 0x3d079c96bdab42a0U, 0x3db6326f3cbe0aa1U,
  0xbaf3cf613d92f037U, 0x3c9d3c89be84caf6U, 0x3c2a99173e504555U, 0x3e2723dabd7c2cb8U,
  0x3da3f5d43d1d371fU, 0xbe2119a9be5a31caU, 0x3ac5b9e33a79bacdU, 0x3d1a7a0abdd47923U,
  0x3c0fd914bccbb407U, 0xbc8e12bdbe6763deU, 0xbc803bd2bdd36384U, 0x3d71bdb1bda993faU,
  0x3dabd49b3dd065f4U, 0xbdae9e843caf604fU, 0x3d2cce9a3e3f5611U, 0xbd8886eb3e0023c5U,
  0x3edbad163e2e6c8eU, 0xbe84ae7cbca8cffcU, 0xbe0ed7eebdf466afU, 0xbdc31d48be0fc0ddU,
  0x3e252437be011236U, 0x3e0b96e4bd9815d1U, 0x3e1c6b39bd8035c9U, 0xbdb9d874bd73fe0eU,
  0x3dd7230bbe1fc8a7U, 0x3cb118c6bd720c0bU, 0xbdcf01323d8883dfU, 0x3c915c2fbcfe6d7fU,
  0xbe4a8d29bd9b0485U, 0x3e6e33e3bd79f4d4U, 0xbe1c8ce33dc2ebf4U, 0x3df0d62c3e0d0308U,
  0x3d0d66103cc162c4U, 0x3cc826d63e75bd2cU, 0xbe94096dbdbcebedU, 0x3d33ed75bdb72364U,
  0xbe03c01c3b0d8d58U, 0x3b3c1b1ebcf641a1U, 0xbd7d2767bd88bf4fU, 0xbbabd07fbe4512f3U,
  0x3c819f96bd2e6eadU, 0x3da2cb2d3db887ddU, 0x3e178416bd9d324bU, 0x3e25f0d73d28bcc9U,
  0xbd8567863d7014f9U, 0x3e4bdcf1bdb45faeU, 0x3e49ed9d3dfe4638U, 0x3e4558cbbbeb9cc3U,
  0xbd36c5823e2b5613U, 0xbdf85196bd4abdfeU, 0xbcd5be78bdbf4405U, 0x3e3665473e06e4d8U,
  0xbe0eebe83d984eb2U, 0x3c35608c3e0d71b7U, 0x3df81b33bc1a18b6U, 0xbdbc256d3d708a36U,
  0x3e2f6861bd0aea59U, 0xbded6aa53e83fd64U, 0xbe159fd1be9e08f3U, 0x3dab0478bdeea129U,
  0xbdc499e83dee1726U, 0xbc78bd30bd81222bU, 0x3d4a18733df2e32fU, 0xbe6bd36a3cf2437cU,
  0x3e6301c3bd9ff429U, 0xbe6c69713dc4ef2cU, 0xbcf5fd8bbe158d42U, 0xbde0d9aa3cde95daU,
  0x3d8b95fcbe240ff8U, 0x3d8d302cbdc3ac39U, 0xbe1ee94b3e53b49bU, 0xbd4569f8bc6839d1U,
  0x3dc50de3be7849e8U, 0xbe0d187d3d13b0deU, 0x3df15ebfbddbe36aU, 0xbb323834bc83a307U,
  0x3d8cb26bbd17ee17U, 0xbdf45b9e3dd9b398U, 0xbdb967723e53f8d7U, 0x3dd468103d6d3dd7U,
  0x3d7eeea03dcc4e58U, 0x3e0f5e3e3d3704acU, 0xbd4032f23d029bb5U, 0x3d0f0302bc045a5fU,
  0xbd0204653d8d5d05U, 0xbc371357bd2e1f58U, 0x3d15b54fbd88531eU, 0x3d878c80be100d3fU,
  0xbe2fcf393e4bcb05U, 0xbd6115f4be3aea4aU, 0xbdaf18553e455d7fU, 0xbd9aeb05bd9fc836U,
  0xbe5813273d019180U, 0xbc3f04fe3d9c14f6U, 0x3e827eff3d85ffc6U, 0x3df810b3bd84931eU,
  0xbdcdab72bdaea280U, 0xbdf6d0c83d3b9ef4U, 0x3e098047bd6cc859U, 0x3c31f1813d4b882eU,
  0xbc6060f6bd826e10U, 0xbe0d8d54bddab6d2U, 0x3e3d5c853db5893cU, 0x3d82c0e83d423e49U,
  0xbe33a5993d594bb0U, 0x3d2cd8983dd95b57U, 0x3cb36774be2c62caU, 0x3b90a4ef3d8602e4U,
  0x3cff73683e03f328U, 0x3cd350e9be1a6819U, 0x3e471cb4bea6735aU, 0x3e70c9183cb885cfU,
  0xbdbc52bebd2d0303U, 0xbd6e94c73b229de5U, 0x3e2ed7cb3da9cdb5U, 0xbda6ce153e8c87b1U,
  0xbd0604f03e2ecc7aU, 0xbe8420423dc53e80U, 0x3e6e0f75bd624db3U, 0x3e50cab8be380982U,
  0x3cba8233bdfa8f4eU, 0xbdb516d9bd034f22U, 0x3e4350c03dcab849U, 0xbd6ce8ac3d4e16e5U,
  0x3e267089be21e1e2U, 0x3e863a1f3dea622eU, 0x3e32a6993d474c67U, 0xbe18705e3e1784d5U,
  0x3d8ac221bcf02c49U, 0xbe377c60bdae080eU, 0xbccd93a23c86bd9cU, 0xbcd121073d27ea1cU,
  0xbead971a3d78f380U, 0x3e05f9a93ec04b19U, 0xbd35770a3dd292c3U, 0x3bc6091a3d35f5bbU,
  0xbcf2b78ebd5e19cfU, 0x3e8d9af9bd93f0c1U, 0xbdfe70ddbe7b69dcU, 0x3bd91b0d3d79bd3fU,
  0x3ddcfb26bdb318e1U, 0x3b61bdf8bd0a1461U, 0x3b826ef7bcd9071eU, 0x3e33b7bbbcbe22a7U,
  0xbd47393bbe16f484U, 0x3d25d93e3cef9931U, 0xbd7bccf93c8a109bU, 0x3e0bbf523e1ef686U,
  0x3db4aa7bbdbc10efU, 0x3d8d03373dc3d616U, 0xbb895679bdee3b3dU, 0x3e3f7ba93d82d176U,
  0xbdf0ec91bdaa9021U, 0xbe488fed3d154880U, 0xbc301690bd31957eU, 0x3d9b94a13c949fa9U,
  0xbd932cd63e41eb72U, 0xbcea1736bca690b5U, 0x3dad3211bd8c5905U, 0xbdacd3e73dbe7849U,
  0xbda6652a3e5441a5U, 0xbe2fc8af3d8f60afU, 0xbd978acc3d47c154U, 0x3dbcc23d3da800dcU,
  0x3e25fdbf3e10f015U, 0x3e0733c6be0646fdU, 0xbc766eb2be10be94U, 0x3d48e9c23d078a57U,
  0xbdf672d5be506878U, 0xbdf026abbe7884ffU, 0x3df3c7b3be6fccceU, 0x3aa3c1cd3dcd05b9U,
  0x3e044be93ddb46afU, 0x3d9df226bdf00280U, 0x3dc240cfbe73bc7cU, 0xbd8bca9fbd0b3a0aU,
  0x3d8e135fbd6b866cU, 0x3e0961b7bd06a02fU, 0xbe129227bd883698U, 0xbd8fc8d23e2753efU,
  0xbe28e2773e2083adU, 0x3e412cfa3ba48d31U, 0x3e1f4e8abe81f746U, 0xbe82d6163e348132U,
  0x3db01246bcc707b5U, 0xbe31c21b3e2044f3U, 0x3d2060583db3120fU, 0x3d1834c9bd0a1369U,
  0xbd6a042bbdf4e8c5U, 0x3dc641cf3d41515aU, 0xbcda6742bdc5d178U, 0x3df2f72fbc027c5aU,
  0xbde69ab93ec878f7U, 0xbe21c58cbda1b2c4U, 0x3c6684873c164f08U, 0x3e24705f3cc9d71eU,
  0xbd9497cb3e0f44f8U, 0xbe0d1ccfbd3248f8U, 0xbcc8daa0bde926ceU, 0xbe4b060abd673682U,
  0xbe78567b3df69698U, 0xbe53818cbca55f19U, 0x3e3bdbaf3b95299bU, 0x3df1b08c3d4799acU,
  0xbbcf69563dfd40fcU, 0xbe8a5573be41616aU, 0x3ca3c771bd68a9d0U, 0xbdb87dafbbae6bcaU,
  0x3d2e1b5abe39db68U, 0xbe4789a93e484e1eU, 0x3c04671d3dc64b14U, 0xbdf3dce53db677beU,
  0xbe2eddf2be56ba67U, 0x3d942abbbe156ff2U, 0xbe2763123d84cd89U, 0x3e1a6e22bd1fe783U,
  0x3d8c113c3dc2d0a2U, 0x3dcc1d8a3d3f1901U, 0xbb1190183e1057e4U, 0xbd0d3144bdf1103dU,
  0xbbf7f24f3de42dd3U, 0xbe2009e5be504b47U, 0xbf05ec193e533937U, 0x3e861c7e3e650bddU,
  0xbd53703c3ecca29fU, 0x3dac7b063cca13eaU, 0xbe48061dbd9c9ac6U, 0x3efab9093d591c8fU,
  0x3db4adc2bddcd950U, 0x3e3b48f83e56c32bU, 0xbdcb0e33be94537bU, 0x3e3adcc73d3656c6U,
  0x3e0a3310bd70ad16U, 0xbd00e7d43d197be2U, 0x3d7681aebe37a95eU, 0x3d18249cbd02893eU,
  0xbd94b77f3db59dfcU, 0xbe0224393e13d74bU, 0x3daaaa4abe3e538dU, 0x3e5ed4ab3d750e6dU,
  0xbd1a48f53caad344U, 0x3e71b8203ceb64b9U, 0xbd9b61bc3d737e3cU, 0xbdaf3cb13e1cd85bU,
  0x3d4b740f3e0df92aU, 0xbe1587783eabd7baU, 0x3853e8093e38d053U, 0x3de90ac0be30e899U,
  0xbd67c1f3bdd8d540U, 0x3e00c1a53b098338U, 0x3dd1f980bd79f515U, 0xbd940441bd9ff8a5U,
  0xbdf08e56bd967d8aU, 0xbc6b78f6bc50f4bbU, 0x3e3cdc3f3df73326U, 0x3d75ab8cbd7362c6U,
  0xbd04bb1d3c5c1393U, 0xbd9a2c213e62452bU, 0x3e89bec53dcc8d15U, 0xba807536bcd2417dU,
  0xbe943bbabd1f0e19U, 0xbe204eab3e31321eU, 0x3c9c8dcdbd56a114U, 0xbcb6e368be04c802U,
  0xbe0f0a30bd82f371U, 0x3d927d383d97122bU, 0xbe109453bdf16e62U, 0x3e4c94a0bdf8194aU,
  0xbdb7eb853c208c1cU, 0xbc8549403d3409bdU, 0xbd11d3fa3be2ef1dU, 0x3d8d6f063dc8e84fU,
  0xbccb4327bd9568b3U, 0xbd0f2e55bd9f7ba5U, 0xbdb44b4e3cb02db3U, 0x3e1c1838be3401a1U,
  0xbdd8c3723dc8c991U, 0xbe1dc4cbbe2ae968U, 0xbe503f42bcb915efU, 0xbc03e7ee3d4e9e84U,
  0x3e3d9c4f3d837c79U, 0xbd16e109bdbdad43U, 0x3cca06693e0b6432U, 0x3c5cf24ebe124176U,
  0x3d19d7db3e28f7d0U, 0xbe6639273e872a2fU, 0xbc5a3e26beaef360U, 0xbe3394cd3dafcc77U,
  0xbde892b8be175cb8U, 0x3cd43d6a3d99ec55U, 0xbc0d969a3e487fc1U, 0xbdad7b46bdb5074bU,
  0x3c7a70ca3a9e9a99U, 0x3da9c89bbe57ea13U, 0xbdaf56743e067f40U, 0xbcb195683d414668U,
  0xbd2747f03da89959U, 0xbe6afb44be3b8e6aU, 0x3dd58d8abe0da965U, 0xbe8e86133e1f1318U,
  0xbe8d04d0bdf52584U, 0xbde684c0bd4220a3U, 0x3dd1b9d43dd4fcbaU, 0x3e68670abd528ca8U,
  0x3df8fe093e061ff6U, 0x3c0ffd113d702c26U, 0x3e5f757ebdfb2e8eU, 0x3d2d1a9ebe60160eU,
  0xbe0747a23d1c2f7eU, 0x3dff0d7abd2a9984U, 0x3e8cb24e3e14a645U, 0x3d96598abdb8aa19U,
  0x3c8c12d2be027de9U, 0xbd129e3ebe560906U, 0x3e77568e3de39a2aU, 0xbeb0b8603d41f478U,
  0x3da0a94fbd4574d3U, 0xbe183329be7f8900U, 0xbdfb86acbe29acc3U, 0xbececea93e1076ccU,
  0x3ec1b5143e0fdf77U, 0x3dfa91753e3da8a9U, 0x3d26474bbcef79efU, 0x3db1e8b73dd3f962U,
  0xbdb963af3ddaf53fU, 0xbe8f6c62bc8f2c0cU, 0xbed0f4443d3a9ca9U, 0x3e6519e63dceb92eU,
  0x3df496063dc3d22aU, 0x3e91c3883e3f23bbU, 0x3e5362fe3d6e4794U, 0x3e7e51c6be12fe8aU,
  0xbd8afd613e107e22U, 0xbea18186bdd45e22U, 0x3da284733e9d8c1cU, 0xbdd817883ecf0fcdU,
  0xbeccfde3be1320b1U, 0xbe0560823db860a6U, 0x3ed5e5ac3d954c55U, 0xbd9455d93f1399e7U,
  0x3f030f81bebbda38U, 0xbecd8e88bed6a629U, 0xbd497624be09bd3eU, 0xbd42dac0be134878U,
  0xbd35533ebe1616ddU, 0x3de117483de821eaU, 0x3db76b9bbddac061U, 0x3ec58f3a3d9a7e67U,
  0xbe3ddd6e3d2f333eU, 0x3e14574e3dee6556U, 0x3daa626e3cc4acfbU, 0x3bdf7cb43e44d1e0U,
  0xbf07f634be05a6e6U, 0xbdd9611b3de3e479U, 0x3e288b203c85334eU, 0x3e4e24bbbd66a82cU,
  0xbe1930413d663cf4U, 0x3daf0a033e322e7eU, 0xbcb223963e777034U, 0xbdb4e9093e1d828aU,
  0xbceb21993d24ea80U, 0x3de710cdbded85bcU, 0xbdc0ccf5be3485d4U, 0x3d2e06f8bca72ea2U,
  0x3e4d3c343e65592fU, 0xbda91ebc3df01896U, 0x3e129879be0557edU, 0x3ddad3cc3e68b8c2U,
  0x3d617456bd4c4823U, 0xbd6b9d7f3ce118f8U, 0xbd9fc7f93e5dcc3eU, 0xbddcb7643e106b1aU,
  0x3dff7369be268238U, 0xbe0202bc3e1bdaceU, 0x3dde106a3e038215U, 0x3e235aa7bd5cbc22U,
  0xbdcf34ed3d2a270eU, 0xbe212501bd671899U, 0x3e41fcc93c1b7683U, 0x3e78f12dbe040fceU,
  0x3e5c865abbdb296cU, 0x3ca74306bc9ad33cU, 0xbd5aa5e73e1000cdU, 0xba8cdf65bd3c8c10U,
  0x3d69e8d3bd86a2f5U, 0x3e2a9e6b3d233b3bU, 0xbdeef07fbe72a198U, 0x3d82de793e5e99e2U,
  0x3d436fb73e61dc68U, 0x3bd99b3c3deccb0eU, 0xbe21d274be4af380U, 0xbda81b9bbb4460abU,
  0x3d94ea6bbd7d5395U, 0xbe4343f2be1261b5U, 0xbdee1b55bda8d113U, 0xbdb383c73ef2a13bU,
  0x3dfe0905bde0c968U, 0xbe89d3983d4505dbU, 0x3e7c09a1bcec7194U, 0xbb7b885dbc79365cU,
  0xbe5dd8dabeba1cc1U, 0xbe950817bd183d99U, 0x3e8dfce23e83d5a9U, 0x3e98ac85bea5d911U,
  0x3ecf25523ea150e9U, 0xbe04549dbce8755aU, 0x3e59fac6bdafa1f1U, 0xbdaed2403e30e075U,
  0xbd6bddac3e398fa5U, 0x3cc64b2a3e3242f3U, 0xbe84cffa3e83b7adU, 0xbcc621c93ca66eb6U,
  0xbd5c6c3ebc33f010U, 0x3e588129be136642U, 0x3cc0bcd63e68e62dU, 0xbdf71485be6f2663U,
  0x3e1a07cebdb938b5U, 0x3e2522283e1fa933U, 0x3d871adebe3d0ccaU, 0x3d8c8aaa3e6c99e5U,
  0x3d1001793e4e0840U, 0xbe3db2bf3c1f08c2U, 0xbcfeb4d63e634661U, 0xbc6b61ff3d2dc9dbU,
  0xbca167103e2ab235U, 0xbddda7d1be9e9180U, 0xbdc85739beb7cefbU, 0x3de819c33dce604bU,
  0x3da78116be532eefU, 0x3e0973e33e0f3ef4U, 0xbe10443dbdc57472U, 0x3e0d7e17be5204edU,
  0x3d54a6dcbe2448ddU, 0x3e3ed5593edec7a5U, 0xbe968dc53edfa586U, 0xbe0afb953e7ed21eU,
  0xbe1f2a24be87b89cU, 0x3e6d3e8dbe0c2cf6U, 0x3ef44a98bd907c4bU, 0x3e48dfa63ede50dbU,
  0x3d8c40d9bd2a8bf1U, 0x3cb5f3a2be9d5ae3U, 0x3df783ca3e1e6327U, 0xbd2d3cafbe49e15bU,
  0xbb2eea0c3d950a71U, 0x3d53691abd887586U, 0x3e5471da3bf182efU, 0x3e8295e63c368947U,
  0x3daaf8a03c97b48aU, 0x3c17962abe267a0eU, 0xbc6e8869beda5197U, 0x3dc8e6c63eeafff6U,
  0xbf308e013dd32c9dU, 0xbe4438333db18710U, 0x3e3f3c2cbcb222fdU, 0x3e4579233e8cab10U,
  0x3c3aafefbe1bb2abU, 0xbe39cded3e4c13fdU, 0xbd78335a3ebc3dd5U, 0xbe2fcb4d3f2b31b4U,
  0xbec8f2d43f135aabU, 0xbe8a6db5be429067U, 0xbc4d45e63df6a5c5U, 0x3ede83d93d879126U,
  0xbe1685aa3ee3e8c5U, 0x3ebe4281bf0e22ebU, 0x3e4b11d1be8d6e6cU, 0x3e26a5be3e26b1a9U,
  0x3e9caa6abddfe08eU, 0xbd434b803d2dba82U, 0xbe616b153ea1f804U, 0xbd583418be2d7336U,
  0xbd43c7333ed58846U, 0x3e2ec682bb8c1f79U, 0xbde9272d3d2d572bU, 0xbd5136c6bf094e26U,
  0x3f01fa243e1b7e58U, 0xbe170a473efd142fU, 0xbe7546e1be350cc9U, 0xbd0f61833e8c86cfU,
  0xbf109cc53d58ae8fU, 0xbbbdc7ef3bf4ee55U, 0x3e515cb73e16d265U, 0xbeae8d083dd6b704U,
  0x3ebdd3cabc6279a4U, 0x3ecb27f83d68d049U, 0xbd7173eebd33cac0U, 0xbe172c803db558c3U,
  0xbe1593e13eb50b9eU, 0x3eaed17f3e246353U, 0xbf22de01be6d4575U, 0xbc066f36bdcf6bc6U,
  0xbea7fd3ebdac9775U, 0x3d29b749bf02f577U, 0x3d95d5da3d88f60fU, 0x3eaf441cbc235083U,
  0xbc9045ef3dc6e71cU, 0x3dc16fcabc97003fU, 0xbe1c7ce83e2ca664U, 0x3e8ed9753d1fe557U,
  0x3cfc42633eb3d411U, 0x3e9e4b28bccf8878U, 0xbea480bb3df3bd72U, 0xbe466938bb8c07abU,
  0x3e7c113d3e07c4baU, 0xbd7cb44ebdbbb67dU, 0x3d4229b03e5e1dccU, 0xbc9957523cfba643U,
  0xbe86b5693dacae68U, 0xbd2a7c33be3585b6U, 0xbce198a43e808039U, 0x3dad7593bd982c6dU,
  0xbc7c5ada3ec15d4fU, 0x3ceb0f893ebb9683U, 0x3e2dd66b3eb5c2e9U, 0xbde2c083be563129U,
  0xbbffa96a3c3017aeU, 0xbe21b880be471a32U, 0x3dda04e1bea05401U, 0xbd78e81bbe7c6efcU,
  0xbe3c72693e7c7b49U, 0xbd959527bebcc26eU, 0x3ed74a843e8e07f2U, 0xbd8970803e71c737U,
  0x3e7d9c223dce4155U, 0x3eee517abe866c4cU, 0x3e24b6c83e38a416U, 0xbeb021093ed89047U,
  0xbbb0ca83bd4b04e2U, 0x3e1967d73e7ea015U, 0xbe6780b3be7a87a6U, 0x3cb08716be450717U,
  0x3d3f91753b6798cdU, 0xbd38822fbde2d616U, 0x3d98bb35be1e9ec9U, 0x3e87e8a03e3bb6b1U,
  0x3dd96aeebd833f22U, 0xbe3d9036bd4bdc82U, 0xbd33126d3d7f124dU, 0x3e01e22f3e545d1fU,
  0xbee5ad1abe30a7a0U, 0x3e3c8d643e865278U, 0xbe45ddcd3e46a32cU, 0x3d96a241be983d8cU,
  0xbc262cf63db72fa4U, 0x3ead833b3e3115dbU, 0x3e01e70d3d6f2d81U, 0xbe2ff5cebe12b490U,
  0xbd3662a63de2d354U, 0xbe97769d3db631eaU, 0xbdac51a13e5c1904U, 0xbe89cccbbe52a6d2U,
  0xbdca996abc823b02U, 0xbcfc6a8bbd29ab03U, 0x3ea3a24c3e840729U, 0x3ca932f83daa402fU,
  0x3d740a7dbe0a2e63U, 0xbd8778153de5958dU, 0xbdc61b9a3eb9342eU, 0xbddf0196ba9ce188U,
  0xbdacd5153d5567a1U, 0x3e341707bd53320bU, 0x3e50d35bbe3e6c66U, 0xbe3eaea9be96b536U,
  0x3e030baf3e43e9bcU, 0xbe255c2b3e45783dU, 0xbdec1590be06f5daU, 0xbcad3c9e3df5d44fU,
  0xbe1a4800be0f6aabU, 0xbde322603eae92efU, 0x3dc6ae513edfc544U, 0xbd2e41983dd47a5eU,
  0xba164619be8c522eU, 0x3db82abb3ebaccbbU, 0xbea0ea03bda4c156U, 0xbec25914bf024e5fU,
  0xbee44744bd748c28U, 0xbdb44abc3b34723bU, 0x3ec3c8e7be1013ddU, 0x3f2a1ae33e9ef3d4U,
  0x3d819044bde08a3fU, 0x3eb8b165be21b6b8U, 0x3d83a4363eb7fd84U, 0xbdf1df543d9d38baU,
  0x3e62f6c43e7052dfU, 0x3dfd60193ed3e34aU, 0x3ca6dbb7be137ac4U, 0x3dac97643e2b91adU,
  0x3d85e6b13ec2f84eU, 0x3d89b5223f468ec7U, 0xbe79d95dbe818d1fU, 0x3e06db7f3dea6c1dU,
  0xbe49cef03dcf8b31U, 0x3dc04680bde96a5cU, 0xbbfb74d9be819a21U, 0x3da270043d1fd498U,
  0x3e9274083d3d5d87U, 0x3dbc4aecbd690887U, 0x3e3d920cbe5576beU, 0xbe5a03fd3d0a4c6cU,
  0xbea9213ebeabb3a9U, 0x3e1e34f53e2faee0U, 0x3c29d53e3ca5bcbcU, 0x3dd7f007be058f96U,
  0x3dea35323d7c4bc9U, 0x3d8a62b83d71fc81U, 0x3eb1061bbe019fa0U, 0xbcbcde9a3d8fa7a4U,
  0x3b8b7d50bc8c02c6U, 0xbc9b7dce3e898473U, 0xbcd5563f3d87481dU, 0xbe3b36edbe96ed58U,
  0xbe93d737bceeac0dU, 0x3db7edf5bc42021dU, 0x3d609916bcc26e79U, 0x3e79d905be52c0a6U,
  0x3e307c28bda58122U, 0x3dccbdfd3f0d1a83U, 0x3ea76af43e017014U, 0x3e963bdeU,
  0x0U, 0x0U, 0x0U, 0x0U,
  0x0U, 0x0U, 0x0U, 0x0U,
  0x0U, 0x0U, 0x0U, 0x0U,
  0x0U, 0x0U, 0x0U, 0x0U,
  0x0U, 0x0U, 0x0U, 0x0U,
  0x0U, 0x0U, 0x0U, 0x0U,
  0x0U, 0x0U, 0x0U, 0x0U,
  0x0U, 0x0U, 0x0U, 0x0U,
  0x0U, 0x0U, 0x0U, 0x0U,
  0x0U, 0x3e58561cbcd8256eU, 0x3d1a7f4d3d0d4e5dU, 0xbce609773d8182bbU,
  0xbc8cf5a23b9cfea8U, 0x3c396288bd55a447U, 0x3d51f97ebd566259U, 0xbd14e9583e0a5832U,
  0x3cb092a0bd8dc99cU, 0x3e845095bd5e27dfU, 0x3c1fae653e526367U, 0x3d3ea895bd4fed4dU,
  0x3a6ecbbcbd1c348bU, 0x3f743c143da85f2fU, 0x3f8bb74b3f989baaU, 0x3f944dfe3f8f0dc7U,
  0x3f868af23f87a2f9U, 0x3f7e3dde3f87b44fU, 0x3f91918f3f91d2aaU, 0x3f9161a53f9f4076U,
  0x3f7137363f8f1924U, 0x3f8a3e213f8a77d7U, 0x3fb2d2bb3fa5380bU, 0x3f8d19cf3f8b7efdU,
  0x3f8b5f773f95da9eU, 0x3f8f43c03f87be6fU, 0xbd2cc633bd5a09caU, 0xbb941a0d3d7d1981U,
  0x3b3777d9bd7f21a8U, 0x3cb9e946bd39db87U, 0xbcfed0e7bc6a1de2U, 0xbb9df248bcc8649aU,
  0xbd47c0953d849316U, 0xbcb97b50bdd95aafU, 0x3ca2d92e3d5c6942U, 0xbcdf45c23ab8ed64U,
  0xbc342ca3bca82cb1U, 0xbb9d2fa23da6963bU, 0x3c70c7a3bc42e323U, 0x3e8992f23dd1521eU,
  0x3d868cf43d652522U, 0x3d8bbb803d608fa0U, 0x3c9b1f2f3ddaef54U, 0x3e784269bd608f63U,
  0x3e9de24f3eba3a44U, 0x3d7d16013cf187b7U, 0x3c78f5683d9f4095U, 0x3da719503e672bdaU,
  0xbadd17253d85a386U, 0x3c84c3ca3e121f17U, 0x3dbc34e73d61aa3dU, 0xbd0563ff3f2ef499U,
  0xbef17d60bcee51abU, 0x3caa13dc3e3b46cbU, 0xbd60d37c3efe578cU, 0xbe7d4efabe76483eU,
  0x3d059fa43f346a5dU, 0x3f3772b43f223a65U, 0x3f0299f53ff850a2U, 0xbf3f762ebef69b80U,
  0xbdb4add1bed1a5fcU, 0x3e97e37abf3e73faU, 0x3edb8115bf7a21e9U, 0xba5248a8be7241bcU,
  0x3e86c3cdbeb503caU, 0x3d2164053ef32c21U, 0xbe47a022befc7938U, 0xbeecaf20be203fa1U,
  0xbed554bfbe6682d0U, 0xbe8f12c13dfeca85U, 0xbd8b2988be1ca39cU, 0x3e6bc0acbead1586U,
  0xbd378d5dbe272cc0U, 0x3f0773a0bdbe37e4U, 0x3d9d67e03f0d2199U, 0x3eb6020b3f034301U,
  0x3ed13f8bbeab8e05U, 0x3e55cfb1bddc8d13U, 0xbe6e2e5cbe9600ccU, 0x3f1b3cf4be8d0663U,
  0x3d6754873e5b24fdU, 0xbf03890abe5b17d2U, 0xbe814554bddb1f5bU, 0x3e4ed2f3bf0424beU,
  0x3deadbb23c91b710U, 0x3ed6bdf23ed9eaf2U, 0x3d4449273de4d96cU, 0xbe661b943e9d0abdU,
  0x3ee420b43ec9d383U, 0x3ecb6452bddcfb4aU, 0xbe0919db3efc1408U, 0xbeb662e7beec3aa1U,
  0xbeb8ce45be87818dU, 0xbec562073e429717U, 0xbf1c8be83ec9c0a2U, 0x3ea7ed12bcc24098U,
  0x3ed94903bf1f4b3fU, 0x3d8baa5a3d99854eU, 0x3f3e04adbedd066cU, 0x3eaf9ad33e8d9ad0U,
  0x3f3b09a73ea2db9cU, 0x3f00105dbec118dfU, 0xbe626cb73d9f9024U, 0xbddcf1ac3f069ff1U,
  0xbee196eebe15880eU, 0xbeb6fddd3e189a0eU, 0xbf58a646bf3bba61U, 0x3f05164ebf015a69U,
  0x3eb81c2b3ebc508eU, 0x3ec9a4b53d63b81fU, 0x3ec185e2bd9173e8U, 0x3ef0c8edbd8bcdacU,
  0xbf21c7a63ec20de0U, 0x3e1373743eca5c11U, 0xbe4498dabd2c9193U, 0xbcfdf68a3e1aff5eU,
  0xbda84e3b3e02f15fU, 0x3e81a7a0beab0b5eU, 0xbecc84b53e2c1f90U, 0x3def1939bf2dce8cU,
  0xbe5caa323ee520cfU, 0xbe9358d23e5d6fa3U, 0xbeab056c3e9d9188U, 0x3e9ff8cd3ebcf1c9U,
  0xbdef080e3e286e01U, 0xbdc65bd8be7633faU, 0xbe2175693eccd2f3U, 0xbd60d8393f19a1c7U,
  0xbe1b5ab5bde8d51bU, 0xbeabb2793ed2c511U, 0x3c996f42befa5e2dU, 0x3ef1145e3ee6e250U,
  0xbe2f15f73da50d3fU, 0xbcecb94e3f1e66eeU, 0xbe32a3d5befccbe2U, 0x3de2a488be814964U,
  0xbe49bb2abd93f516U, 0x3dbbd559bf0e92e2U, 0x3c683900be7662e9U, 0x3e97e4c8bd8bb6d5U,
  0xbc115955bd8c4aecU, 0xbc589136be0f6621U, 0x3ead9ef4bef2ebffU, 0xbec4ee51be806479U,
  0xbf172927bea05eeeU, 0x3e34f8cd3e80bff1U, 0x3d1707943be474c7U, 0x3e086b423ecab0d0U,
  0x3b8919ca3f07da9aU, 0xbd63f87f3d220413U, 0x3eb28822be5fe92aU, 0xbe1cdf643eac95d5U,
  0xbe2780cdbf129e60U, 0xbdf648f03e732124U, 0xbd9c088c3f1b1769U, 0x3db3aa26bec40364U,
  0x3dcbe3393d9acb67U, 0xbe1af3103d93dfb7U, 0xbdb00f3abf1e67aaU, 0x3f4709a5bd3ac2b0U,
  0xbeaefb14bd3913b0U, 0x3d0a61193ea07fdbU, 0x3d1721853f04db6aU, 0x3f4d3c1abf069605U,
  0xbda96aa3bd28646fU, 0xbc87fecabf3e4305U, 0x3dc136a03e92c7e5U, 0xbed68421bbe87c6bU,
  0x3ed24a87be728224U, 0x3eab28da3e8b7fb8U, 0x3f90a1d33f408968U, 0xbf24e1613dd1aba9U,
  0xbf26750dbdf43781U, 0xbeb4cc143d3af4f9U, 0xbf2de6b6be626a95U, 0xbef769433d9be49dU,
  0xbe041d2a3f4ef1aaU, 0x3e8163143e2e748cU, 0xbe265ad93e84ed58U, 0xbe803e383f027585U,
  0xbe3d9775bedd74cbU, 0x3e91e3533eff903aU, 0x3ecb70393f091508U, 0x3ed6c5b43fd277f4U,
  0xbf082ff7bf5277c7U, 0xbdc35a99be4e56e8U, 0xbe1cefeabe096d93U, 0x3eb862f1bd321cdbU,
  0x3f1f36ea3d98e7bfU, 0xbf31b94fbe91401dU, 0x3e9c70c6bf1b2aa8U, 0x3ea9efb33f051150U,
  0xbaf44ab4beb07be0U, 0x3f094b683d455d33U, 0x3ee38836be905940U, 0x3ebd427e3f59b59cU,
  0xbf036c643e9bd32aU, 0xbde37e713f1a1265U, 0xbe924e0d3e3c34e3U, 0x3e9c3e7ebecbfbe6U,
  0xbf3d62aa3e868618U, 0xbd3cb68ebd4c582eU, 0xbebcf164be07d21dU, 0x3e6298613c55c06dU,
  0x3e54e914bed6cd6aU, 0xbd8ee3cabdc931b3U, 0xbda76c833e8884b4U, 0xbeb7c6643eb5ed24U,
  0xbe733af4be934ed3U, 0xbebba1973f11c196U, 0xbccef4793e62733cU, 0xbe46c99dbe9ba616U,
  0x3eb014d8bdac0622U, 0x3d90456a3d9070a4U, 0xbe117b8fbd96e43aU, 0xbf23f8e63d5c77ffU,
  0xbf2854febd9c266dU, 0xbe9eb71f3c73b46fU, 0x3eeb5e9b3e87b6c0U, 0x3d34e2b8bb9a2303U,
  0xbe160bcdbf3b64c2U, 0x3e63ce95bb6c111eU, 0x3e90263cbed35486U, 0xbd7b07e13e79bda3U,
  0xbeb575383e0f5c64U, 0x3def3e433d4c6b69U, 0x3e9fe8f43f29fb1aU, 0xbeaaa7843f362706U,
  0x3e8dd1963e2d4970U, 0xbc46f8783d73249bU, 0x3e419902bea689c5U, 0x3f250deb3f196360U,
  0x3f02c1bc3ee88b97U, 0x3ef3e1e63f5bcc38U, 0xbf48a66cbdee85daU, 0xbddba893be8584f2U,
  0xbd1db3d2bf00250dU, 0x3cc89c1abf19759fU, 0x3eb41330be800822U, 0xbe4153e83e19e4dfU,
  0xbef4930b3d3c693aU, 0xbe5136903ec1c5e0U, 0xbdd4a03f3ebfe958U, 0x3ec72f8abe3e1a68U,
  0xbd4fdb113da370ccU, 0xbe5c4157bf1bf02dU, 0x3ec34a0f3d42ab5cU, 0x3e202159bd272219U,
  0x3e4962debe0c9b8fU, 0x3dc61fabbe9f9585U, 0xbae217963e1849ddU, 0xbeb071703d731a17U,
  0xbe3f4a0abf18dc1dU, 0x3efb1ca2be4b6fd7U, 0xbd32a4c7bc56a5f0U, 0xbe18733d3e6d9624U,
  0xbee012de3e5423ceU, 0x3cf99f5a3d4d0a7bU, 0xbebc7add3e7b28dcU, 0x3efaca34bd86bbfdU,
  0x3e8d64fd3e5e3649U, 0xbe28d0db3e7f4377U, 0x3e8fd9d63e56afcbU, 0x3e41bcc93bc672d5U,
  0xbd434da5bde82568U, 0xbd7732e63e8f1f09U, 0x3e9a4a82bdcd8b7fU, 0x3d883d8fbd6f66f0U,
  0xbefe8eadbe5d57a7U, 0xbf08d8d93e0e6712U, 0xbd5a00aabe4d3b0bU, 0x3e8643fb3d15480aU,
  0x3da7dfbc3de677e3U, 0x3e9f6cd7bdadab4eU, 0x3e388b293e316361U, 0x3edf8cfb3e960832U,
  0x3ecda34b3f124256U, 0x3dd509523f20ceccU, 0x3e1adb6e3e7150b2U, 0xbec656ae3ec5b965U,
